#version: 0.2 - Trained by `huggingface/tokenizers`
Ġ t
Ġ a
i n
r e
h e
o n
t i
e n
Ġ o
Ġ s
Ġt he
e r
e d
Ġ c
a l
Ġ p
Ġ in
Ġ w
a t
e s
Ġa n
Ġo f
o r
a n
i s
i t
ti on
r o
Ġ f
Ġ m
Ġan d
Ġ d
a s
Ġ b
i c
a r
in g
Ġ re
en t
l e
Ġ e
Ġ (
Ġt o
e l
a tion
e c
u s
o m
u l
Ġt h
a c
Ġ h
Ġ n
o l
e t
e re
o s
Ġ l
u r
i g
i d
i m
it h
l y
Ġw ith
v e
Ġ g
u n
Ġs t
Ġf or
Ġ T
o t
Ġc on
c e
t er
re s
Ġp ro
i l
o w
i f
Ġa s
a ti
u t
Ġw as
â Ģ
Ġ is
a m
Ġ v
u c
at ed
Ġ 1
Ġe x
Ġw ere
u m
o d
t s
r a
s t
Ġth at
Ġ C
Ġa l
o c
Ġ A
Ġ on
it y
Ġb e
a b
s i
ti c
Ġ 2
el l
m ent
u d
at e
v er
o p
Ġ S
r i
) .
Ġc om
i r
t ed
Ġb y
Ġre s
a g
u re
Ġa c
Ġ I
e m
q u
u p
ro m
he r
o g
Ġ P
an t
s e
Ġo r
Ġ r
t h
a y
a in
Ġ us
ĠT he
Ġa re
Ġa t
ent s
ic al
v el
Ġ M
d i
p l
Ġd e
f f
Ġf rom
in e
a d
0 0
Ġc ell
Ġc h
Ġ [
Ġcom p
o re
Ġin c
as e
es s
Ġ im
Ġ H
p ec
Ġw h
un d
Ġd is
T he
Ġs e
Ġs h
Ġst ud
u b
r an
Ġ F
ig h
ig n
p h
i es
si on
Ġcon t
Ġp er
u g
) ,
or m
i z
Ġa d
p or
d uc
Ġp re
if ic
Ġex p
Ġ le
Ġ D
Ġp ati
Ġg en
t e
o us
ation s
Ġ en
Ġ B
Ġ 3
y s
er s
en ce
Ġn e
Ġ he
a re
ti ve
Ġ R
y p
es t
Ġ N
if f
Ġ E
Ġw e
ere n
Ġn ot
i on
c h
Ġas s
ti v
Ġd iff
Ġc o
g e
is t
âĢ ī
Ġth is
i p
t her
ic h
Â ł
Ġpati ents
Ġs ign
v ed
le c
Ġc an
ac t
Ġg ro
a p
ff ec
v i
ab le
Ġin t
Ġh a
Ġcell s
tion s
ar y
Ġin f
Ġd i
] .
i b
Ġ G
d ing
Ġc l
Ġa p
Ġp ar
al ly
Ġb et
ag e
as ed
an ce
Ġsh ow
w e
os t
Ġdiff eren
Ġwh ich
ĠI n
en ti
Ġs y
Ġstud y
Ġp l
ran s
Ġ it
an d
Ġ L
or s
Ġ 0
Ġo b
ul ar
ol og
Ġ 5
i a
Ġha ve
Ġin ter
as t
Ġ 4
Ġa b
Ġm et
re at
Ġan al
i al
p ro
e ar
Ġm od
ati ve
v id
on g
we en
Ġm e
u e
res sion
e p
ar i
Ġ k
Ġp res
Ġbet ween
p le
l ow
Ġs ub
Ġre g
N A
v al
Ġe ffec
Ġre c
Ġp h
Ġt rans
Ġres ul
Ġsign ific
ac h
Ġinc re
Ġ W
0 1
Ġgro up
ro l
Ġw he
t r
en c
os e
y l
al l
Ġin d
Ġd et
at a
f orm
igh t
Ġus ing
s o
Ġ O
at es
Ġs pec
en d
re n
i ed
Ġs c
Ġsignific ant
un c
p on
om e
a k
Ġcon s
te in
o und
ri b
er m
âĢ ĵ
il l
v en
p t
f ter
oc i
ti m
Ġal so
ul d
Ġus ed
or y
Ġac tiv
Ġs ur
por t
Ġre l
at h
ug h
Ġm ic
l ud
Ġs am
Ġe t
Ġle vel
Ġbe en
st r
o ur
Ġth an
Ġc or
Ġh as
Ġthe se
Ġ un
Ġa m
Ġanal ys
re e
i ti
Ġd ata
il ity
I n
Ġ y
on e
Ġp os
w o
Ġpro tein
ot h
reat ment
p er
res s
en s
u al
ro s
Ġal l
Ġan ti
ul ation
Ġst r
Ġin v
Ġh igh
Ġ 6
el y
h is
tion al
as es
as s
Ġ und
Ġt im
Ġv ari
vel y
Ġm ay
id e
Ġac c
t al
ec h
Ġn o
Ġa fter
Ġo ther
s er
o ut
Ġ qu
are d
at ing
Ġthe ir
Ġ U
Ġt reatment
Ġm ore
Ġ ro
y m
an g
t ing
. ,
Ġc ol
ra p
Ġcont rol
ra in
Ġt wo
ent r
ec tion
Ġl ow
F ig
Ġa g
e ver
Ġinc lud
at er
Ġund er
Ġb ut
o x
Ġd es
duc ed
t ain
uc h
Ġass oci
a us
ar d
Ġ =
Ġexp ression
Ġs p
Ġcon c
o od
e w
ur ing
Ġv al
u res
Ġresul ts
i le
Ġmod el
m un
Ġb l
Ġm ed
Ġf ol
Ġres pon
l u
Ġs up
Ġd ec
Ġa r
b er
an c
ere d
iz ed
in ed
vel op
st em
Ġp r
y t
Ġb i
Ġanalys is
Ġm o
Ġc ar
ac e
Ġo ut
Ġmet h
ac ter
re d
Ġme as
Ġper form
Ġb oth
Ġstud ies
Ġ2 01
u es
t ure
Ġ 7
d er
Ġf act
h ib
Ġm an
an ts
Ġob ser
Ġf unc
Ġs im
ar g
Ġde velop
Ġo ver
Ġdifferen t
c ess
t en
Ġ1 0
al th
og en
ow ever
it e
Ġ id
Ġgen e
Ġtim e
Ġpar tic
Ġ Î
Ġ2 00
ec t
g en
Ġfol low
Ġn um
enti f
Ġind ic
Ġh ad
a il
n e
Ġfor m
Ġ 9
Ġexp er
u tion
Ġl i
re c
ay s
is m
Ġon e
1 0
os is
Ġpres ent
Ġdis e
on d
Ġe ach
d e
in al
yp e
o b
Ġsy stem
l es
he d
olog ical
al s
Ġf ound
Ġs er
Ġ K
pl ic
in ding
Ġ V
or k
Ġd uring
r y
Ġlevel s
b le
Ġs ug
ati c
ac k
Ġn on
re l
he m
Ġcomp ared
Ġre p
Ġs uch
Ġcl in
Ġcomp le
Ġap pro
Ġh ig
c er
ic i
Ġint o
Ġm on
iz ation
ter n
Ġsug g
he n
Ġre por
Ġid entif
Ġe m
Ġ 8
Ġon ly
Ġthe re
Ġp ath
Ġmeth od
ec ted
Ġo ur
il d
e x
Ġus e
r ic
y c
i tion
ac tion
Ġmeas ure
on s
Ġ up
o uld
hib it
Ġhe alth
f ore
ment s
di tion
Ġactiv ity
Ġassoci ated
at ure
m on
âĢ Ļ
tic al
i um
Ġdis t
Ġincre ased
ti vely
duc tion
c es
Ġh yp
Ġgen er
is k
ab ility
ow n
is s
Ġeffec t
r am
Ġre m
Ġit s
Ġm ost
Ġex am
c c
ur ther
Ġw ell
ear s
Ġp ol
ĠT his
ar k
ul ated
i x
Ġshow ed
at ory
Ġnum ber
qu enc
Ġobser ved
ag n
Ġsignificant ly
Ġm in
Ġde p
Ġclin ical
Ġen d
or d
Ġre ce
Ġpro vid
ir st
vi ous
Ġp ot
Ġdet erm
Ġd em
Ġ ra
Ġg l
l l
Ġo p
in es
um an
Ġde f
Ġres pec
Ġs ec
Ġdise ase
Ġhig her
Ġt um
Ġp o
an ge
k e
W e
Ġco uld
in ation
al e
ro ugh
il ar
o ugh
Ġwhe n
enti al
O N
i v
he s
Ġ1 9
Ġconc entr
Ġshow n
i tive
Ġl oc
Ġs m
ul t
ur ren
Ġt est
Ġpro cess
Ġrepor ted
] ,
â Ī
1 2
orm al
Ġperform ed
Ġcon f
a x
Ġr isk
Ġeffec ts
Ġth ree
aus e
Ġim mun
Ġsy n
em b
Ġcan cer
Ġwh o
R NA
Ġpro g
ti g
Ġ es
o id
ĠF ig
Ġpre d
on str
Ġch ar
Ġexper im
olog y
iz e
val u
Ġim port
m in
ra ph
er y
Ġass ess
Ġstr uc
ent ly
o un
Ġme an
Ġwhe re
Ġdes c
Ġ âĢ
ion s
Ġf irst
p ar
Ġh uman
p os
Ġp op
Ġc al
iti es
ol d
qu i
er g
o res
y d
ti t
Ġgen es
Ġm ul
Ġgroup s
o k
a v
Ġsam pl
Ġk n
Ġre f
ag es
tain ed
Ġe valu
r on
Ġpre vious
Ġdec re
Ġth rough
l ic
m ed
ech an
Ġm ut
Ġo cc
Ġmic ro
Ġa ge
f t
Ġt r
p tion
Ġin di
am m
ut e
Ġgro w
C T
Ġmic e
re ated
Ġt iss
Ġthe rap
or t
l ed
es tig
Ġm echan
i ve
oc k
si ve
Ġpr im
od y
Ġrespec tively
arg et
Ġac id
1 1
Ġchar acter
Ġin s
Ġr ate
is e
Ġs ol
uc le
E S
Ġs o
Ġpati ent
Ġinv estig
Ġin hibit
Ġ J
Ġwith in
Ġch ang
Ġth ose
Ġfunc tion
Ġrespon se
Ġdi agn
Ġsim ilar
end ent
Ġdis c
Ġim pro
Ġthe y
Â ±
p it
Ġdem onstr
o v
Ġto tal
ur al
% )
vid ual
Ġcons id
5 0
c ri
j ec
Â °
Ġd o
Ġ1 2
Ġm ain
Ġdesc rib
ĠW e
âĪ Ĵ
Ġb ec
Fig ure
in d
Ġpartic ip
as m
op h
us ion
C R
Ġa ut
Ġd r
it s
Ġf e
Ġim p
Ġp ost
Ġinclud ing
ĠH owever
ati s
Ġinv ol
g an
Ġspec ific
vi ew
Ġy ears
Ġincre ase
Ġs et
re g
z ed
ro p
Ġs ome
S A
Ġfact ors
ation al
ech n
Ġt arget
Ġpred ic
Ġse lec
âĢ Ĳ
Ġindi vidual
Ġcal c
0 5
og raph
tic s
rec t
o ver
Ġimport ant
Ġap p
T his
en e
Ġe v
es ted
Ġcomp ar
Ġc ases
am et
Ġsampl es
Ġe lec
in t
os ph
om es
i e
Ġrep res
Ġmul ti
C A
Ġdevelop ment
1 3
Ġb ased
ff ici
h a
ro ph
urren t
ple ment
ver s
Ġcor rel
Ġanti b
Ġlow er
Ġm or
e k
i qu
Ġinf orm
ros s
n ess
ain ing
Ġro le
si ble
C L
ĠC D
2 0
1 5
Ġl im
Ġw ill
Ġb as
Ġw ork
en si
v ing
Ġc yt
n al
ĠD NA
i od
Ġn ormal
Ġt ri
Ġam ong
us t
Ġl ong
if ied
Ġt em
ent al
1 4
ic e
i ved
Ġmo lec
Ġd ue
f ul
y n
Ġchang es
Ġd id
Ġ <
Ġf re
ar ly
en g
a i
Ġne w
Ġsam e
Ġch ild
c op
i el
Ġbl ood
tiv ity
Ġpot ential
Ġprotein s
G F
an n
it ed
ti l
Ġsugg est
Ġ j
Ġval ues
Ġre qui
r ation
Ġ2 0
i an
Ġr at
Ġc are
Ġf inding
Ġwh ile
E T
in c
he l
Ġmechan ism
ress ed
Ġad dition
âĢ Ŀ
Ġ Ġ
ep endent
f er
Ġa v
Ġne ed
Ġob tained
Ġidentif ied
ti es
Ġpro t
Ġsm all
Ġdr ug
ear ch
A C
Ġcom b
om en
ical ly
1 6
D S
in k
Ġtum or
s pec
enc y
Ġanal y
Ġf urther
Ġspec ies
Ġm emb
at ely
Ġcomple x
' s
ate g
iel d
ak e
om a
Ġcon di
th ough
Ġgrow th
1 9
l is
Ġex pl
ar t
Ġthe n
Ġc ap
it er
Ġpro m
an e
as c
it es
ĠF or
Ġex tr
T S
Ġco un
or ding
Ġdifferen ces
Ġo x
1 8
S I
ar ge
Ġse ver
Ġpop ulation
Ġsh ould
Ġt echn
Ġin j
th s
Ġv is
Ġsec ond
a ir
Ġcondi tions
Ġa ffec
Ġv ir
ĠS t
in s
ing le
C s
a j
ĠâĢ ľ
Ġl ine
Ġwith out
A T
di tional
f ace
yp es
Ġcl ass
Ġsign al
et h
Ġex c
Ġp at
Ġm ark
ir on
Ġl ess
Ġper iod
al ity
Ġle ad
s es
I V
ab ol
Ġs tim
1 7
v es
Ġe vid
Ġsur g
Ġout c
2 5
Ġan y
Ġf lu
Ġp e
Ġt ype
Ġrece pt
Ġpath w
Ġes tim
Ġsy m
ĠA s
Ġn ucle
Ġdescrib ed
Ġm at
Ġst and
l i
Ġfollow ing
Ġin iti
Ġab out
Ġs ingle
Ġc ase
l amm
I I
Ġcom mon
aj or
Ġcont r
Ġpres ence
Ġab s
Ġrepres ent
ĠT h
u ce
pt om
Ġocc ur
Ġinclud ed
Ġ3 0
Ġtiss ue
Ġinform ation
s y
ain s
Ġh ist
Ġtrans cri
Ġe l
yd ro
ha vi
Ġre ve
Ġexp os
Ġex t
c ent
Ġv ol
Ġor gan
Ġmeasure d
Ġre le
ĠThe se
âĢī =
Ġm ajor
Ġ1 5
c on
Ġpos itive
ens ity
Ġt ra
h ip
an ti
Ġfact or
ain ed
Ġc urrent
Ġc r
ĠC h
ic ation
00 0
Ġd el
Ġs ize
Ġcol lec
Ġsam ple
og n
ĠA l
Ġst rain
es ts
Ġre duced
Ġc aus
Ġc hem
Ġbe havi
A P
Ġrel ated
Ġg ra
it her
Ġre t
c ed
Ġres earch
Ġw ould
Ġmet abol
t o
m s
Ġg reat
un g
Ġd om
Ġdist rib
Ġc le
i or
Ġconcentr ation
Ġne g
er c
Ġne u
Ġfinding s
Ġinf lu
it ro
ut ed
re en
er ation
os pit
ic k
Ġis ol
Ġf ib
ific ation
Ġph osph
us c
Ġreve al
Ġr ati
Ġbec ause
Ġsur vi
Ġse quenc
ac tions
3 0
Ġt reated
Ġdifferen ti
ĠI t
Ġd ays
Ġl arge
an s
Ġf r
om ic
T o
ver age
Ġra di
Ġre view
i o
ĠThe re
ĠA n
Ġreg ion
Ġt erm
ad e
Ġpat tern
at or
on al
Ġf l
âĢ Ĭ
H O
Ġst atis
Ġm al
z ym
Ġpro b
t y
Ġag ain
om et
Ġtherap y
Ġinf ection
Ġprim ary
ĠFig ure
Ġ2 4
Ġchild ren
Ġ if
M S
Ġan im
Ġstruc ture
M P
Ġw omen
oc yt
Ġevid ence
Ġpar amet
str uc
v ere
ul ations
qu ence
Ġc ul
Ġval ue
Ġav ail
Ġsur face
Ġf our
v iron
Ġc yc
et y
Ġmemb ran
oc h
Ġde g
Ġcon duc
Ġsever al
o f
b ased
Ġdifferen ce
Ġp hen
hes is
ĠI L
at al
Ġe le
Ġbe fore
Ġli k
Ġdemonstr ated
ac y
Ġwe ek
Ġpro duc
jec ts
ce pt
Ġp ur
Ġe p
Ġst ress
Ġstand ard
Ġparticip ants
Ġat t
Ġf am
C C
is sion
Ġb inding
Ġ1 00
Ġo l
Ġprevious ly
w ard
Ġpl asm
Ġcont rib
Ġb re
Ġ5 0
asc ular
b r
res pon
Ġpro f
2 3
Ġactiv ation
Ġtem per
i ly
Ġad d
Ġb rain
med i
Ġdes ign
c o
A S
Ġw ater
Ġne ur
if e
Ġloc al
as ing
ous e
Ġwhe ther
Ġph ys
2 4
Ġs ensi
ti s
ot her
x im
ĠR NA
Ġre d
Ġdeterm ined
ĠÎ ¼
o ve
ag ing
c l
% ,
ar m
Ġconsid ered
Ġdi rect
a f
Ġf em
Ġimpro ve
Ġen h
el f
Ġsym ptom
Ġp ub
Ġmodel s
Ġl ab
R I
Ã Ĺ
i ven
Ġconf ir
Ġpos sible
l ine
Ġv er
Ġr ange
op er
Ġman y
n ing
Ġres ist
ro und
Ġresul t
Ġe ither
Ġstruc t
ati vely
Ġcar di
Ġm ater
Ġe arly
are n
2 2
Ġprom ot
Ġ Q
v ant
ro w
P A
Ġch ange
os s
m e
Ġcharacter is
Ġkn own
Ġrel ations
in ce
Ġdecre ased
ospit al
is h
ot he
Ġe qu
Ġ1 4
âĢī 0
Ġv i
ĠT able
tic ally
Ġal low
Ġcons ist
l ing
P S
ver se
Ġmethod s
Ġinter ven
Ġstr ong
ic s
er v
Î ²
Ġ19 9
Ġappro ach
Ġpar t
ros cop
Ġfunc tional
id ence
Ġ +
Ġmulti ple
Ġagain st
Ġm y
w ork
ir c
Ġconcentr ations
Ġb acter
u ally
t he
Ġpro per
el s
Ġm usc
yl ation
Ġen viron
00 1
s ure
R ES
Ġreveal ed
ul es
U L
t ro
st e
Ġs u
Ġen zym
Ġ1 6
SI ON
Ġpartic ular
Ġdet ected
Ġ X
oun t
Ġinvol ved
Ġor der
Ġanaly zed
Ġ est
and om
Ġfre quenc
m it
Ġm ight
Ġ1 8
2 1
Ġrelations hip
ĠU n
C ON
lis hed
ere st
Ġmon ths
min ist
ore d
Ġ Z
er r
Ġinf lamm
Ġpro l
Ġreg ul
a e
Ġsurvi val
ĠC I
Ġ ed
om y
Ġhyp er
Ġavail able
ter m
Ġm g
Ġs us
Ġl ip
Ġn et
ep ti
CL U
Ġv s
Ġsup port
ab les
e u
Ġm i
Ġr ates
CLU SION
Ġn ec
Ġcul ture
Ġser um
Ġph ase
Ġrati o
om p
se qu
Ġper s
Ġcomp on
Ġv ery
Ġacc ording
Ġindic ated
Ġ1 3
Ġpro ced
Ġb el
2 7
Ġch rom
in duced
Ġl o
Ġprovid e
Ġlik ely
Ġdiagn osis
Ġse quence
Ġf il
N D
Ġexp ressed
T able
Ġbe ing
Ġwe ight
CON CLUSION
Ġ Â±
in f
Ġres id
Ġexperim ents
Ġd ay
eren ce
at us
Ġcom mun
Ġe ff
4 0
Ġunder st
C D
Ġare a
Ġvari ous
Ġ u
Ġr andom
Ġdevelop ed
ar di
s c
ys is
2 6
is ed
Ġhe m
Ġpro duction
Ġf ac
Ġs uc
Ġ9 5
am in
O S
UL TS
Ġtechn iqu
Ġdiagn os
Ġ2 5
plic ations
ul l
is ion
Ġd ose
Ġneg ative
ffici ent
Ġpresent ed
Ġp ri
ur ation
ĠT o
c in
Ġrecept or
Ġrec om
Ġtemper ature
ul in
Ġqu ality
anc ed
es is
Î ±
end ed
C l
P s
Ġform ation
Ġpr ac
Ġm en
Ġqu es
ot ype
eng th
ell ular
Ġsub jects
Ġanalys es
rel ated
ol ution
ym ph
pl ied
Ġb ody
2 8
plic ation
Ġ -
Ġ z
Ġgener al
Ġmembran e
2 9
spec ific
at ures
Ġmolec ular
Ġa verage
Ġad ditional
RES ULTS
Ġdeterm ine
is on
v ent
ul ts
te g
Ġcontr ast
ET HO
Ġre port
Ġc irc
ab ly
ter s
Ġad j
Ġp ain
um e
Ġin duced
Ġd at
Ġidentif y
Ġprog ram
Ġf low
Ġcor respon
sy ch
Ġl oss
Ġrel ative
Ġassoci ation
Ġad minist
is ts
B S
Ġcalc ulated
Ġenviron ment
Ġf oc
ocyt es
Ġdistrib ution
Ġs k
Ġexper i
n er
b ility
u le
Ġparamet ers
Ġrespon ses
Ġfollow ed
Ġle ast
Ġm ax
R P
Ġ Y
R T
Ġnet work
Ġs ites
ogen e
The se
Ġl arg
Ġwhere as
Ġreg ions
Ġre duction
Ġstr ateg
el ine
Ġconduc ted
Ġexpos ure
Ġextr ac
) ;
Ġg iven
Ġcont in
Ġindividual s
op l
d s
ron ic
A l
Ġthe m
Ġv ia
Ġh owever
E M
Ġl ymph
A s
Ġinc ub
Ġperform ance
ĠS c
Ġint r
od ies
Ġg u
ver y
od e
Ġen c
Ġgreat er
Ġ i
Ġs ite
Ġd er
im um
erg y
Ġrequi red
Ġh ydro
Ġm ix
Ġst ate
id es
Ġac ross
ograph y
ane ous
Ġpol ym
Ġhe l
pos ed
m ore
ro up
Ġe ven
Ġgene tic
Ġli ver
Ġd own
ap p
Ġl es
Ġf ield
Ġsymptom s
Ġeffec tive
ETHO DS
Ġincre asing
Ġm ass
Ġsurg ery
Ġh om
Ġevalu ated
our s
Ġmechanism s
Ġcomp ound
Ġl ife
Ġs ti
Ġse par
c ence
Ġass ay
ĠA ll
Ġresist ance
R O
Ġindic ate
Ġn an
en sion
Ġde ath
Ġ â
Ġc ur
as k
Ġs l
Ġdi ab
Ġb one
Ġgl uc
Ġinter action
at in
âĢ ²
Ġcont aining
ic ity
a z
er n
Ġpathw ay
3 4
A D
Ġexam ined
j ect
Ġa im
Ġb u
ol es
Ġelec tr
Ġrec ord
Ġinvestig ated
Ġcollec ted
Ġassess ed
p ir
Ġfrequenc y
w are
anc es
Ġtim es
Ġan g
Ġcontrol s
Ġvir us
Ġm RNA
Ġt rain
othe rap
Ġm it
Ġm m
Ġt ypes
Ġf ail
ent er
it ation
Ġac h
Ġab ove
Î ¼
Ġc entr
Ġh ow
Ġse x
ib le
Ġshow s
hel ial
ater al
Ġpro ble
vers ity
o y
ri al
Ġhigh ly
Ġplasm a
Ġpres sure
Ġ1 1
Â µ
d es
Ġs elf
3 5
Ġach ie
oc ial
ce p
tal ity
ĠR e
Ġt ested
Ġest ab
in ant
b l
pec ted
S T
Ġpre val
Ġbl ock
Ġrat s
O R
Ġcomp os
Ġcar ri
Ġfam ily
e y
Ġmater ial
Ġst atus
Ġper cent
Ġcorrel ation
Ġb ar
Ġo per
Ġbet ter
ol s
on ic
Ġle ft
Ġac tive
Ġkn ow
Ġbehavi or
urther more
ene f
Ġth us
Ġin teg
Ġoutc omes
9 5
Ġs al
Ġsignal ing
The re
Ġsol ution
Ġsequenc es
Ġpri or
Ġsc ore
Ġ ur
3 8
Ġcharacteris tics
Ġproper ties
d ependent
Ġacc ur
t ype
m ission
age ment
M I
am p
Ġc ross
Ġfoc us
Ġstim ul
Ġh ospital
r u
Ġre action
m l
Ġexam ple
3 6
hib ition
ur y
Ġl ung
Ġstud ied
oper ative
Ġor ig
Ġmor tality
oc y
s et
Ġar ter
t in
y si
Ġpre c
or ing
ĠH e
Ġch ronic
ex t
and s
in ts
an ding
Ġint ra
Ġm ac
Ġexperim ental
Ġsup p
H owever
Ġb enef
/ -
Ġv itro
Ġdef ined
1 00
Ġdecre ase
Ġap plied
li ke
Ġl ines
) -
Ġval id
Ġmed ical
8 0
Ġind ependent
Ġst ep
Ġt ak
o le
Ġanim als
Ġsc reen
Ġex hibit
at ors
ut es
i ally
Ġover all
ĠA d
C I
Ġl ight
Ġse vere
as is
Ġdise ases
Ġhe re
Ġprol if
ra g
Ġdisc us
Ġobser v
Ġselec ted
Ġmusc le
Ġp ul
Ġaut h
ic es
A L
E R
Ġmed ium
t hesis
ac tive
Ġl ink
Ġop tim
Ġdi et
Ġrec ent
Ġimp act
et her
Ġ unc
Ġcar b
T P
ĠI I
Ġdet ection
Ġv ac
Ġ1 7
Ġpo int
ĠU SA
Ġneu ro
Ġs our
p ut
up plement
Ġimmun e
Ġare as
Ġl ack
3 3
Ġt e
Ġcl us
Ġ .
ar c
ĠĠ ĠĠ
Ġp epti
Ġsystem s
Ġl ength
Ġox id
N F
Ġre ad
A G
in a
Ġcon dition
Ġv iv
Ġprovid ed
ĠC O
Ġhe ter
ra y
Ġst age
ogen esis
l usion
ra d
Ġvol ume
Ġweek s
ur n
al es
Ġf ive
ĠH IV
u k
Ġp sych
r im
otherap y
Ġab ility
Ġmed i
Ġem b
er ic
ĠÎ ²
Ġ ill
Ġof ten
Ġsh ort
Ġvis ual
Ġ4 0
es sion
Ġin hibition
le t
et es
Ġen ergy
Ġantib ody
u tions
3 7
Ġg ly
ed ing
ud e
ot s
er ing
Ġspec t
6 0
ti f
Ġsuc cess
Ġcr iter
Ġint erest
Ġs um
Ġe th
g l
4 5
Ġrep e
M ETHODS
A n
Ġtiss ues
ĠP ro
l or
Ġac ute
Ġviv o
Ġph ot
ĠA m
anc y
I t
Ġphys ical
led ge
Ġ rap
Ġr ight
an k
re ad
Ġiniti al
pl ant
Ġvari ables
is ing
res h
it al
in o
Ġim aging
Ġcompar ison
r ing
yn am
he st
Ġp ap
Ġdis pl
3 2
Ġappro xim
A R
Ġbre ast
k g
Ġf ew
Ġm ade
Ġm ouse
Ġbas eline
n ot
Ġb ack
Ġs ens
or b
ore over
g o
le x
Ġt ub
Ġad v
ĠâĢ ĺ
ogen ic
Ġthere fore
ar ch
Ġto x
T h
ut ure
ter ior
m a
Ġ >
Ġno vel
ĠThere fore
Ġpl ay
rom e
Ġap op
ĠO n
Ġmor ph
ĠC a
Ġof f
Ġcont ent
Ġdo es
ph a
Ġoutc ome
Ġstrain s
t rans
Ġfe atures
Ġd ys
l er
ab il
in ally
Ġcomb ination
Ġc ause
Ġsensi tivity
Ġat ten
Ġques tion
Ġt ran
Ġev ents
Ġpro por
Ġhe p
P D
Ġpreval ence
c ell
Ġcontin u
Ġpe ak
Ġisol ated
Ġam pl
ĠP D
D NA
r al
Ġflu ores
Ġind ex
ĠC T
Ġcoun t
f act
Ġconfir med
Ġso ft
Ġsugg ested
Ġd am
Ġsti ll
Ġref lec
ti ce
C S
Ġinter val
on es
eu tic
Ġneur ons
t reated
Ġp ow
ly ing
Ġinter actions
as tic
Ġgluc ose
âĢī m
Ġh and
Ġcell ular
Ġmon it
p ri
Ġinflu ence
ĠA fter
am ine
Ġp H
ub le
Ġd ensity
ograph ic
o int
Ġlim ited
Ġ6 0
oc hem
Ġmet ast
3 1
Ġ ul
Ġl ay
s ing
Ġf ood
ĠTh us
Ġf ree
Ġse en
Ġsc ores
Ġim ages
a ve
ĠE x
B P
I N
Ġsur ve
Ġantib odies
Ġe pit
Ġpos ition
Ġprocess es
Ġdom ain
an tit
re t
Ġk ey
Ġp aren
Ġprot oc
Ġhealth y
Ġinclud e
Ġf at
Ġw ild
Âł =
or ph
Ġinf ec
ĠA D
Ġelec tro
Ġto p
Ġbi ological
Ġc at
is tic
ri es
ĠP CR
Ġinterven tion
Ġconsist ent
Ġsub sequ
Ġtran si
Ġknow ledge
ĠC on
Ġresul ting
Ġtri als
o tic
Ġl iter
Ġrec ogn
Ġrece ived
a ff
op le
ĠÎ ±
Ġre duc
7 0
Ġtrans fer
Ġpop ulations
upplement ary
Ġcon struc
Ġv ers
Ġpathw ays
eth yl
od es
Ġpl ace
Ġc ri
Ġsub st
Ġcon st
Ġtrain ing
s tit
Ġal though
Ġy ear
Ġk in
Ġm ale
Ġcaus ed
och ond
Ġu til
Ġs ocial
Ġd ynam
Ġdiff ic
Ġ err
Ġgen ome
Ġm M
l o
Ġman agement
e f
Ġ x
ĠA t
ul f
Ġc ateg
Ġhel p
ve ment
5 3
Ġd im
Ġrap id
p ose
ol ar
ap s
% ),
Ġsuggest ing
Ġcorrespon ding
Ġpro posed
Ġg ood
ect or
Ġpub lic
Ġch all
Ġlim it
iz ing
Ġtum ors
O ur
Ġt ests
M A
em s
id s
ul ate
Ġevalu ate
ress ing
y ear
Ġpo or
Ġmut ations
Ġdis s
S D
ĠC A
Ġtranscri ption
en se
Ġmic roscop
Ġqu anti
Ġstruct ures
Ġinj ury
Ġabs ence
Ġco h
iti s
Ġhe art
op ath
it u
Ġl ig
Ġcriter ia
o ti
in ary
as on
F or
Ġpattern s
Ġa x
g n
Ġs ince
Ġphosph or
n ormal
Ġdiab etes
t le
Ġactiv ities
Ġmi R
us tr
Ġt ask
Ġdet ail
Ġprolif eration
3 9
pl oy
Ġinc idence
4 4
enc es
Ġreg ression
Ġexperim ent
o h
Ġsugg ests
em ia
Ġpredic t
Ġs ix
an y
Ġimpro ved
m L
Ġrem o
Ġfre qu
Ġw or
Ġ ir
Ġcol on
unc tion
Ġauth ors
Ġbi om
Ġele v
Ġpro duced
er tain
Ġmeas ures
Ġincre ases
Ġassess ment
Ġrecom m
Ġaffec ted
Ġ3 7
Ġre st
e an
ĠR es
Ġ ve
Ġfunc tions
enc ed
t osis
Ġdrug s
Ġmeasure ments
Ġf ix
2 00
Ġproced ure
y gen
Ġestim ated
Ġw id
ff er
ar tic
Ġcompon ents
Ġto ward
Ġtri al
Ġpe ople
Ġcomple te
oun g
Ġsup er
ĠM S
b i
ol ic
p ite
M D
Ġtherap eutic
ag ed
res sive
Ġliter ature
pec ially
a w
Ġd os
Ġsecond ary
v ices
Ġcol l
s p
in ing
Ġâ ī
od ing
CONCLUSION S
Ġcompound s
Ġrele ase
Ġs af
Ġnec ess
i er
Ġad ap
f old
Ġ Âµ
or der
Ġm em
Ġpre vent
he re
r in
ar b
Ġfem ale
w ent
Ġenzym e
Ġre al
Ġex pected
is ted
Ġpre gn
Ġm id
Ġinvestig ate
Ġcon n
ri x
Ġsub str
Ġcle ar
Ġadd ed
Ġterm s
Ġacc um
Ġmit ochond
om al
ic acy
Ġc ogn
Ġins ulin
Ġcomb ined
Ġal le
Ġcar cin
Ġvers us
Ġp air
if y
Ġex ten
Ġpl ant
Ġal ong
Ġcl os
M R
Ġab le
Ġ ess
form ation
N P
Ġse g
Ġdel i
Ġapproxim ately
Ġreg ulation
ĠI g
Ġsurg ical
Ġal g
âĢ ¯
Ġed uc
ĠAl though
h ile
Ġy ield
Ġgener ated
w ay
Ġlo ad
Ġcarri ed
Ġh y
Ġes pecially
ĠS T
I P
Ġm ig
p ression
ĠM ed
ac tiv
Ġl at
Ġc ry
Ġg ast
Ġtrans l
Ġam ino
Ġc ent
Ġs ide
Ġc ere
Ġcorrel ated
Ġar tic
Ġdirect ly
Ġl og
L A
ot ypes
Ġg o
4 9
Ġpar ti
m an
C M
P CR
Ġs w
Ġm uch
ĠF urthermore
Ġfac il
ir d
Ġsum m
r ich
Ġd uration
Ġsyn d
Ġpo ints
ac ed
Ġevalu ation
Ġcyc le
7 5
S P
Ġs ch
Ġdifferenti ation
Ġmark ers
d om
ut ri
Ġn at
Ġd ri
ĠC l
Ġresul ted
Ġf inal
Ġam ount
z e
Ġac t
Ġh ours
Ġles ions
Ġex ist
Ġr ang
Ġpos si
Ġaffec t
Ġapop tosis
Ġop en
K G
Ġe ffici
Ġmut ant
over y
Ġch ann
ag en
Ġpot enti
Ġstatis tically
A ll
Ġhist ory
Ġdist inc
Ġhyp ot
Ġal tern
Ġconsid er
Ġpol y
Ġ her
Ġqu antit
lud ed
um ent
im al
Ġmolec ules
urren ce
Ġad he
Ġred uce
Ġf uture
2 01
C G
Ġf rag
Ġcentr al
Ġquanti f
Âł m
Ġdi rec
Ġdet ect
l d
Ġvi ew
I F
Ġ ÃĹ
Ġim plement
Ġref erence
reg ulated
Ġtrans f
ord ers
4 8
9 0
Ġincub ated
ar ding
Ġcharacter ized
Ġpre p
ĠE n
en z
4 2
ĠI m
por ted
Ġtechniqu e
ati ents
or atory
r h
Ġindic ating
Ġcap ac
Ġ "
Ġinflamm atory
Ġf ile
Ġdiscus s
Ġsk in
Ġsyn thesis
Ġt yp
re am
i ous
pri ate
Ġint ro
Ġ+ /-
Ġadminist ration
Ġdat ab
Ġpow er
Ġ4 8
Ġad ult
Ġs il
E G
Ġag g
olog ic
Ġlarg er
Ġdam age
Ġne ut
Ġgu id
âĢĬ =
Ġle ar
ren g
Ġtest ing
Ġc op
Ġrel atively
Ġvac c
Ġstatis tical
Ġsc ale
ak ing
ĠP A
b ers
c hem
E CT
i at
Ġo ste
4 7
C P
Ġy oung
Ġunderst anding
Ġrecord ed
Ġ âĪĴ
Ġrequi re
k n
V A
Ġhig hest
Ġcons um
tim e
v ice
C h
Ġph ysi
ot or
ĠC om
Ġwho le
Ġmax imum
Ġint ensity
i versity
Ġcri tical
Ġb ro
Ġem erg
Ġst aining
ox id
% ).
Âł 1
C O
Ġintr ac
Ġselec tion
y tic
S t
Ġsup plement
Ġeff icacy
Ġpl ate
ur se
Ġc ost
Ġchrom os
Ġto g
Ġim age
Ġneed ed
R A
T T
Ġmed ian
Ġdep end
er ate
Ġcyt ok
Ġstim ulation
Ġtog ether
% .
Ġset ting
or ption
se e
Ġprog ression
B AC
Ġd oc
Ġvari ation
Ġs he
Ġrecept ors
Ġcommun ity
F P
Ġ201 0
Ġprovid es
t rol
Ġmean s
E N
Ġfail ure
ĠM oreover
ac hes
Ġuse ful
Ġder ived
a di
opl asm
Ġre nal
Ġprog n
U ND
4 6
Ġst reng
Ġsoft ware
Ġdiffic ult
4 3
Ġph arm
ot ox
Ġ201 3
Ġinhibit or
y r
Ġan other
Ġem ploy
or ies
Ġth ough
ĠE R
Ġa ir
Ġe y
Ġal ter
g roup
Ġ &
Ġpl ants
Ġestab lished
A d
ĠB i
s h
Ġ2 1
RNA s
an ol
Ġh ost
Ġcardi ac
Ġpap er
Ġmetabol ic
Ġbacter ial
KG RO
ai red
KGRO UND
ĠN a
ne y
Ġpredic ted
Ġf it
Ġad ults
Ġst ar
Ġproduc ts
i i
medi ated
Ġp an
Ġf ull
Ġgl ob
âĢī <
Ġb est
Ġab normal
Ġ201 2
Ġdis orders
Ġsuccess ful
Ġscreen ing
BAC KGROUND
em ic
ocy te
Ġa ff
Ġline ar
d ay
Ġh al
Ġcoh ort
Ġapp ear
ĠHe alth
Ġemb ry
Ġenh anced
h ydro
Ġpro te
ay ed
Ġinv as
Ġal one
es tern
Ġprac tice
Ġhe ad
ĠP h
ul ating
or ith
T A
Ġv ascular
h ol
Ġ201 1
N O
m et
o z
Ġrem ains
6 5
Ġsyn the
Ġpercent age
Ġindic ates
Ġmed ic
Ġmat rix
Ġinteg r
Ġc atal
Ġ201 4
Ġcon ver
Ġ2 8
p s
Ġdemonstr ate
b o
Ġup on
Ġtranscri p
O B
Ġinflamm ation
D L
im ilar
Ġap plication
Ġsec re
Ġess ential
ai ly
Ġchem ical
Ġsynd rome
ĠO ur
Ġmut ation
n ai
oc ardi
Ġlead ing
et s
Ġox ygen
Ġparticular ly
Ġclus ter
Ġshow ing
Ġd il
Ġanim al
tain ing
Ġoccur red
Ġex erc
Âł al
Ġalg orith
ing s
Ġb ir
Ġrele vant
Ġ *
t ered
Ġrat her
d uce
ip her
Ġpropor tion
Ġbu ffer
oc al
Ġab und
ib r
Ġprotoc ol
Ġcom plications
o u
5 7
v ari
d ed
Ġsm ok
Ġis s
Ġtak en
Ġtechniqu es
Ġinj ection
Ġep id
resh old
Ġstrateg ies
Ġd ig
Ġra re
entr ic
âĢ Ķ
Ġor al
Ġs itu
Ġd on
Ġc ult
r m
Ġacc ess
Ġrec ently
Ġinter p
jec tive
Ġcogn itive
ros is
Ġstruct ural
Ġappro priate
Ġac et
e ed
ĠM D
ip p
ag ne
r up
Ġe ar
r it
Ġimport ance
Ġcount ries
4 1
Ġn m
str ic
Ġha ving
Ġc ut
iz es
Ġre pro
Ġac tion
6 7
P C
Ġdeg ree
ov ascular
Ġob es
Ġacid s
Ġend ot
Ġa round
Ġdistinc t
Ġ201 5
S S
ogen ous
b y
Ġcapac ity
Ġl it
ac ts
M T
Ġgly c
mon ary
Ġser ies
lis h
e g
f or
ec tive
ĠC R
Ġc m
ap e
Ġm el
am e
Ġl ast
Ġpro st
Ġrel i
Ġmeasure ment
if ically
Ġbel ow
Ġ200 9
Ġsour ce
op ro
Ġkin ase
Ġh ome
Ġbas is
t t
Ġinter nal
Ġpub lished
9 9
A B
en ding
Ġth ick
Ġmetabol ism
p r
Ġl ater
Ġcompon ent
Ġbacter ia
Ġen g
o ol
il i
Ġcon ven
Ġnucle ar
Ġrec ru
Ġlip id
Ġreg ard
J ECT
L C
Ġ2 2
er ve
Ġd aily
L I
y ro
Ġsignific ance
Ġdiagnos tic
i k
ic ro
Ġcont ext
br id
Ġfluores cence
Ġev olution
a ro
E D
Ġmain ly
Ġnat ural
Ġ ion
Ġch o
te x
Ġnum bers
h ood
in ated
Ġexperi ence
Ġmac roph
ochem ical
Ġ ,
C H
Ġst able
oc c
it ude
Ġf ram
est inal
as ts
or n
g es
us ted
Ġm agn
Ġinf ected
Ġin duction
ing ly
Ġnecess ary
Ġ3 5
Ġprep ared
l us
Ġst em
Ġimprove ment
y stem
Ġco e
Ġinfec tions
A A
c t
Ġdist ance
Ġcry st
pec t
Ġ9 0
u ter
re es
iv ing
C on
Ġfr action
ic ial
E C
ra w
Ġpepti de
igh ts
Ġli ke
. [
Ġth reshold
c hed
Ġtreatment s
Ġvir al
iat ric
Ġsp ati
Ġin duc
Ġvari able
Ġper ipher
Ġrepor ts
Ġanti gen
Ġag ents
l ess
y g
Ġreg arding
pos itive
iqu e
Ġass um
Ġol der
Ġb ound
JECT IV
5 5
Ġsubsequ ent
Ġm ar
g round
ism s
Ġp or
si zed
al ing
Ġre stric
Ġpolym er
Ġin st
om as
Ġenvironment al
Al though
ob l
Ġaccur acy
Ġelev ated
Ġstrateg y
Ġachie ved
uc t
E x
Ġ8 0
Ġexam ination
oph il
Ġproble m
Ġcontrib ute
Ġenh ance
ĠC o
l and
Ġproced ures
ran ge
Ġappro aches
Ġdesign ed
ĠC H
Ġe very
pl es
Ġc all
Ġse ed
d en
out h
S C
O H
Ġn utri
ot yp
Âł 2
E P
Ġprocess ing
Âł 0
Ġw ay
Ġdeg rad
Ġsh if
yc in
oid s
et al
f ree
Ġcontinu ous
Ġg e
c om
b e
ch ing
Ġconfir m
Ġsurve y
Ġal pha
Ġmajor ity
ĠP C
olog ies
Ġdeli very
Ġloc ated
Ġproble ms
Ġad en
I R
m ost
re m
Ġspec tr
im ens
c k
Ġthe rm
Ġm ust
Ġal co
it r
Ġk id
kn own
Ġprof il
ĠS D
c are
Ġm es
Ġun til
I C
oci ated
or por
er ved
ir us
ĠA r
Ġexerc ise
ann ing
Ġfacil it
ra di
Ġlong er
Ġ âĢĵ
t ake
agne tic
Ġ2 6
Ġb ur
Ġunder lying
Ġhypot hesis
ven tion
ac es
Ġ200 8
OB JECTIV
Ġinhibit ors
Ġl ys
od ium
Ġlay er
Ġco up
Ġco urse
Ġtrans port
R es
h y
om er
N S
Ġsign als
ac hed
Ġmal ign
Ġexpos ed
Ġcarb on
Ġinterven tions
qu e
5 6
t roph
Ġcontrol led
Ġsl ight
Ġdat as
Ġde vi
le ep
Ġmemb ers
Ġe as
ĠA P
Ġrepres ents
ĠR T
Ġquestion nai
Ġres pir
ĠA T
Ġper ce
ar v
en ess
Ġtr ig
Ġfem ales
ĠI F
b ial
H ere
Ġang i
b s
ign ed
Ġerr or
L R
Ġeffici ency
y st
in ity
cep ti
Ġatt rib
Ġass ays
em i
ari ly
um in
a u
ro c
ĠS p
Ġbet a
Ġrecom b
os cop
Ġc ertain
ici ans
Ġmem ory
f unction
P V
Ġidentif ication
Ġantib io
ist ry
Ġo vere
Ġev ent
e qu
Ġunder went
Ġsubst anti
Ġon set
Ġt end
Ġ200 7
Ġde le
el ing
Ġdep ression
id ity
Ġst ability
ĠUn iversity
Ġhyper ten
Ġtem por
Ġ2 9
st ream
t ag
itro gen
Ġmitochond rial
o ff
Ġind uce
inf lamm
âĢ ħ
Ġstud ents
Ġactiv ated
Ġre pl
Ġrespon d
Ġm amm
Ġmal es
est he
Ġdiagnos ed
Ġt ren
os ts
Ġb o
ur b
in ical
yl ated
rom b
Ġcaus es
Ġmark ed
Ġlab oratory
Ġphosphor ylation
Ġlear ning
Ġhal f
ĠO ne
Ġaltern ative
Ġto ol
Ġdo uble
Ġdi vid
Ġpharm ac
Ġst ages
Ġeduc ation
ter ol
Ġcom m
Ġpromot er
at s
medi ate
Ġmark er
N T
l ob
omet ry
reg ulation
um n
ic t
Ġad verse
Ġphen otype
Ġarter y
C F
Ġb r
el ed
Ġres our
os a
Ġsubstr ate
ĠD ata
dition ally
Ġw all
an al
R S
b b
8 8
Ġag ree
Ġdiscuss ed
Ġaccum ulation
Ġ201 6
Ġsequenc ing
ĠSt ud
Ġav oid
br al
plant ation
si a
al k
Ġf er
Ġc he
Ġh yd
Ġelectr on
ĠW T
Ġbro ad
Ġ7 0
mit ted
Ġexhibit ed
Ġunder go
Ġ4 5
Ġto ler
S H
Ġ2 3
ĠA g
Ġglob al
ĠC ell
Ġext ent
Ġacc ount
i tions
Ġhigh l
Ġcarcin oma
Ġperipher al
I L
Ġstrong ly
Ġprof ile
Ġv ector
Ġver sion
Ġchall eng
Ġfix ed
Ġpre par
G G
ol ved
B D
Ġpul monary
Ġ2 7
Ġconf idence
Ġsim ple
Ġresid ues
Ġmix ed
Ġcomp are
Ġinhibit ed
ar ing
Ġdep endent
Ġpre f
ass ociated
ĠIn c
N Ps
ec ts
t on
ĠS e
Ġin ser
A M
Ġm uc
anc re
Ġform s
Ġh orm
e tic
Ġdi amet
Ġextrac ted
Ġsc i
Ġch ain
ati ves
y ears
Ġre ason
Ġdatab ase
ro ke
il s
Ġphysi ological
âĢī Â±
Ġimp air
Ġconst ant
6 8
Ġspecific ity
Ġm ake
Ġintrac ellular
Ġth ird
Ã ©
Ġepit helial
Ġwh at
Ġstreng th
Ġdevelop ing
Ġro om
Ġpro duce
Ġm otor
op e
Ġenzym es
S e
Ġup take
os ter
Ġspec ial
Ġalco hol
aren t
Ġsus cepti
Ġproduc t
Ġtrans mission
Ġwe ak
Ġgener ally
c m
Ġlead s
O n
Ġs leep
Ġsensi tive
Ġpotenti ally
Ġpar as
Ġcont act
Ġpregn ancy
Ġnot ed
Ġgen omic
Ġun ique
Ġse arch
Ġse e
Ġul tr
ĠW hen
Ġexam ine
Ġ Â°
O D
ar ies
A t
GF R
d im
Ġ Ï
spec tive
ĠC S
B M
Ġmod ified
us e
Ġch lor
ar s
Ġcompos ition
Ġn or
8 5
rol og
oti de
Ġs low
Ġfr act
Ġsaf ety
H R
x t
Ġrec overy
Ġcor rec
Ġtarget s
w w
s tim
is c
Ġr un
H C
Ġsever ity
Ġvari ants
Ġoccur s
ĠI II
Ġdis order
Ġen ti
Ġchem otherapy
Ġb ase
Ġâī ¥
ĠA c
Ġdom ains
ĠN o
el ines
Ġcommon ly
Ġmod erate
Ġad vant
Ġro b
omet ric
am ic
ul a
anc er
it ing
6 6
Ġcalc ium
Ġus ually
s ec
Ġd one
Ġheter ogene
inflamm atory
Ġculture d
Ġmig ration
Ġcan not
her s
Ġint ake
ĠO R
Ġcardi ovascular
ur g
Ġag ed
P I
Ġl ed
Ġdos es
Ġo w
Ġflu id
Ġt w
Ġf ind
Ġendot helial
Ġg el
oph ag
Ġser vices
Ġsp ace
A fter
Ġdef in
Ġbl ot
Ġrespon sible
Ġloc ation
B C
Î ³
ĠT NF
Ġ ).
Ġquantit ative
ĠG en
ot e
Ġmaterial s
Ġmonit oring
Ġs ection
Ġ ent
ĠC ol
Ġfe ed
Ġl ate
Ġother s
Ġkid ney
Ġup per
Ġgener ation
Ġt urn
ros pec
ph osph
Ġc ore
ĠI V
Ġv it
Ġlit tle
erg ic
d id
ĠS imilar
Ġle uk
u rop
Ġfrequ ently
Ġn erve
Ġapp ears
Ġ200 6
Ġcons tit
Ġovere x
gen ic
Ġalgorith m
Ġdegrad ation
in ate
ell ing
Ġb ind
s is
Ġst ates
8 9
Ġconven tional
ĠS h
Ġbi op
Ġim m
Ġisol ates
Ġwor ld
Ġspati al
Ġgl ut
Ġdef ici
Ġd en
plic ated
Âł 3
o lec
tern al
Ġbec ome
P R
Ġf ar
8 7
Ġp ancre
Ġsec tions
A m
Ġf ul
ĠR ec
Ġcan did
Ġre actions
we ek
Ġkn ock
ĠThe y
er al
d le
Ġcol i
Ġ rol
Ġbi as
oles terol
w ise
Ġbi o
on ary
Ġp ig
Ġn ow
g ed
Ġhuman s
Ġl as
ec ause
Ġremo ved
G E
os p
ib ility
i ety
Ġinc orpor
Ġcult ures
Ġass emb
Ġrem ained
Ġn ature
Ġestim ate
cc ording
Ġform ed
Ġy et
Ġexc luded
j ected
Ġrepe ated
or al
D M
is hed
Ġradi ation
Ġf ast
Ġdescrib e
ĠA L
Ġconc ern
Ġcur ve
ob acter
Ġg ran
or ts
Ġwh ite
Ġrespec t
D H
t a
( -
Ġwid ely
Ġs oci
Ġvari ety
O C
yro id
de f
T R
Ġfib ro
Ġpolym orph
Ġob tain
S upplementary
Ġm ental
ac tivity
5 4
Ġin put
ati ent
ist ent
Ġmed ia
Ġatten tion
t erest
Ġv ary
ep end
Ġf av
j ug
Ġv entric
Ġback ground
ĠP BS
as ter
5 1
d own
Ġst roke
Ġw ide
al le
Ġpl aced
Ġinter view
app ing
Ġpr inc
Ġregul atory
t est
Ġv ess
Ġrespir atory
Ġextr act
Ġ200 0
Ġman ner
Ġoptim al
Ġhy brid
Ġsmall er
ap an
Ġoxid ative
ne um
c rib
6 3
ĠG erm
Ġthrough out
Ġobserv ation
Ġcl ose
b ack
ĠP T
Ġcor tex
6 9
tiv eness
Ġa di
Ġconsum ption
F A
ro g
âĢī Î¼
ĠCh ina
Ġst er
g i
ri p
et a
Ġpost operative
Ġl ateral
ari ate
Ġn ur
Ġcon se
as h
Ġpro p
Ġan terior
Ġsub un
ti le
Ġbir th
Ġun known
ir al
6 4
der ived
Ġal most
I T
Ġol d
Ġgen der
Ġrep air
5 2
Ġmacroph ages
n m
Ġmin utes
Ġbel ie
Ġhyperten sion
Ġagg reg
Ġadminist ered
ĠSc i
ri ef
Ġ200 5
ot al
Ġt reat
av es
re p
/ /
l ation
Ġol ig
ĠĠĠĠ ĠĠĠĠ
Ġun it
Ġele ments
ĠL e
Ġmet a
Ġcol umn
Ġpan el
m od
Ġbar ri
ĠAm eric
Ġdiamet er
E L
Ġmicroscop y
Ġrelationship s
Ġmut ants
Ġfam il
Ġtransi tion
oun ts
Ġclass ification
Î Ķ
u fact
Ġobserv ations
iff eren
r ine
6 2
Ġsystem ic
ĠN F
Ġspec ifically
Ġsystem atic
igh ted
terest ingly
Ġestim ates
H A
w ide
ĠI C
Ġne ural
Ġprofil es
+ )
Ġpartic les
Ġsmok ing
B I
ĠÎ Ķ
ĠA p
G A
Ġassoci ations
Ġli qu
Ġs odium
ĠA f
: //
5 9
val ent
t ation
li er
entif ic
Ġcomplex es
ment ation
ĠI f
le ar
Ġrecomm end
Ġneed s
Ġprob ability
g in
Ġful ly
0 2
as p
O X
l ab
7 7
m ic
Ġappro ved
e ti
Ġdys function
5 8
c ers
Ġnum er
Ġrequi res
Ġman ufact
Ġdynam ics
er ative
Ġb il
âĢī h
Ġap plications
Ġallow s
Ġartic le
Ġdep os
I D
l im
Ġenti re
Ġguid elines
ult aneous
Ġdivid ed
Ġcor onary
Ġtoward s
Ġcor rect
cri pt
Ġdec ision
Ġ ide
os tic
Ġs ulf
Ġis chem
Ġst e
is ation
in ter
Ġill ustr
c hes
ĠIg G
Ġover l
Ġp ast
Ġorig in
Ġunderst and
u tive
Ġm L
Ġpers on
sequ ently
if est
ĠJ apan
Ġres olution
Ġco ord
Ġestab lish
yt es
Ġles ion
ot t
ra z
Ġs atis
Ġcont ained
GF P
Ġagree ment
Ġs qu
Ġp en
Ġfor ce
Ġobes ity
P ro
Ġdoc ument
in ations
ĠP l
Ġcomp r
ĠA ND
ĠW hile
Ġcollec tion
onstr uc
Ġbiom ark
Ġcle arly
ĠA TP
Ġ3 6
Ġsampl ing
er red
oc l
ig ma
se ud
Ġ3 2
Âł h
Ġcurrent ly
Ġne xt
C V
Ġbenef it
Â ·
Ġpur pose
Ġm il
Ġse ven
ĠH R
Ġso il
8 6
ar ia
P P
Ġth romb
Ġem o
Ġtox icity
Ġp ut
Ġpossi bility
Ġac qui
Ġvari ability
Ġob jective
Ġlink ed
ell a
Ġadv anced
Ġs i
Ġrem ain
ĠE urop
Ġro ot
Ġinvol vement
oc occ
u it
ure d
Ġpos terior
Ġset s
og ram
Ġneur onal
Ġsecre tion
es pite
Ġmedi ated
Ġthick ness
Ġh is
Ġreduc ing
m ol
Ġph yl
Ġcont ains
Ġtranscri pt
Ġm agnetic
ĠÎ¼ g
en ing
Ġb al
Ġspec imens
Ġsub stit
or tic
ĠS upplementary
Ġad oles
on ucle
Ġun its
Ġcompar able
Ġtrans form
Ġro ut
Ġprof ession
7 9
ri a
Ġnan op
Ġrepro duc
Ġe ight
7 3
os yn
Ġdi versity
Ġsol id
S M
id ine
S E
ĠD M
Ġb and
Ġmix ture
Ġslight ly
Ġinhibit ory
Ġstimul i
ĠT r
Ġfollow s
Ġextrac ellular
B L
ension al
im mun
Ġne ar
Ġ7 2
am ide
os omes
ic le
v ision
ep t
ĠIF N
7 8
Ġclass ified
Ġallow ed
Ġorig inal
) :
Ġtempor al
Ġrol es
Ġ200 4
e ared
Ġmechan ical
Ġwas hed
Ġrandom ized
l ink
Ġbas al
Ġques tions
Ġsyn ap
Ġp ack
ĠF e
t ely
ĠAf ric
p oint
Ġchromos ome
Ġf und
Ġo d
er t
Ġm ill
Ġinvestig ation
Ġrem aining
Ġ201 7
P T
Ġac cept
Ġmater nal
al ian
Ġsu fficient
Ġincub ation
Ġmy ocardi
ĠR A
ĠM A
b inding
Ġn orm
Ġconc lusion
Ġsour ces
Ġm other
N o
i re
Ġpred om
el i
Ġapp arent
Ġ3 1
ec ond
Ġparamet er
Ġm iss
Ġg reen
Ġinter f
Ġquestionnai re
O ne
Ġch olesterol
ĠM RI
Ġe fficient
âĢ² -
ĠP I
Ġs pon
Ġor th
6 1
Ġb ran
s ess
ill ary
00 01
Ġpur ified
Ġemploy ed
Ġpl ays
term inal
Ġpre vention
Ġn am
ĠW ith
Ġchann el
Ġ7 5
ati tis
lic k
o ot
Ġdifferenti al
i ent
ect omy
Ġnetwork s
or gan
if ug
ph al
Ġcont ain
it able
Ġhe at
Ġsim ultaneous
U S
w ell
Ġdes pite
Ġcomple ted
ov ered
Ġf lex
OBJECTIV E
Ġpair s
Ġb ond
Ġche ck
Ġd ate
Ġe c
ĠA R
Ġn g
Ġ3 3
Ġre ach
Ġfe ature
um b
Ġcytok ines
Ġp neum
Ġpromot e
O L
Ġret rospec
Ġliqu id
R ec
Ġan x
it ud
Ġpl ot
Ġvari ance
Ġmain tained
re hen
f usion
w ays
Ġhep at
Ġcyt oplasm
Ġc osts
Ġm ild
H D
ĠIn stit
ur s
is ons
Âł Î¼
Ġbl ue
ob ic
ĠP R
Ġsub ject
b al
ri tis
Ġf ung
v is
Ġbehavi our
ad s
tion ed
Ġre verse
Ġpredic tion
Ġcompar ing
Ġmetast asis
Ġgen otype
Ġmel an
en ge
ĠIn de
Ġag ent
7 2
H z
Ġin str
I m
b or
Ġs ession
Ġit ems
ic a
a ph
Ġp ass
0 3
m ia
Ġmin im
Ġadj usted
Ġexpl ained
on ia
Ġex ternal
ace ment
is es
7 1
ĠW estern
Ġf in
Ġrecomm ended
Ġdynam ic
U C
â ī
Ġrati os
Ġgener ate
Ġan tag
9 8
ĠB MI
Ġlimit ations
Ġpo ol
Ġparti al
ak es
Ġalle le
Ġinvol ving
Ġtrig g
D R
U n
Ġst ained
Ġtarget ing
Ġrel ation
C om
Ġpepti des
Ġexpl ain
Ġle g
Ġde ep
Ġde vice
Ġequ al
ogene tic
Ġatt em
Ġp ed
Ġan tic
Ġdiff er
Ġfocus ed
s ide
read y
Ġcons erved
Ġj oint
rom et
con trol
Ġv en
Ġrec onstruc
Ġpol ic
ture d
Ġsus p
G T
N C
Ġal tered
P atients
Ġres ear
Ġt et
og lob
Ġ iron
Ġmo vement
P E
Ġder iv
ĠF inally
Ġadd ress
Ġdevi ation
oc amp
ĠE ach
t um
os omal
Ġspectr um
ever al
us ed
Ġsh or
ĠB l
M E
Ġantag on
Ġplace bo
Ġcomple tely
Ġey e
Ġmo tif
ox ide
Ġc enter
Ġear lier
ac ent
Ġse ems
Ġclus ters
Ġlas er
Ġen rol
Ġex cept
Ġo ri
ig en
Ġmolec ule
l in
Ġextr action
Ġexp ressing
Ġsp erm
Ġmorph ology
o e
Ġspect ra
Ġnanop artic
Ġtarget ed
ĠP re
Ġselec tive
7 6
oc ation
Ġmet al
ign ific
Ġrec urrence
Ġdeg rees
Ġc a
F s
Ġb le
om atic
Ġgra de
z ing
Ġsub set
Ġrece iving
Ġra d
ti d
Ġex ce
Ġprob e
if orm
Ġdis rup
Ġrob ust
Ġcon cept
Ġmod e
Ġal ready
ad es
tiv es
A I
Ġpro xim
hel ess
Ġtra um
Ġcan cers
Ġcoll agen
Ġow n
ren ce
Ġdispl ayed
Ġprovid ing
Ġremo val
Ġli ving
en sive
Ġreview ed
Ġmon th
Ġel im
til ity
Ġ er
Ġ q
c al
Ġexperi enced
ol low
Ġg r
Ġmeth ylation
ste ad
Ġal ign
Ġdirec tion
8 4
ke le
ac ted
il tr
ment al
pec ts
. )
w h
B V
Ġgast ric
lud e
Ġf usion
Ġinter act
ĠE D
me an
Ġw ound
ĠGerm any
NO VA
enc ing
Ġhem at
y le
ac et
Ġind epend
Ġw a
C lick
A c
Ġin struc
as ons
Ġcons ent
Ġcoe fficient
Ġend ogenous
Ġn odes
ut ing
os in
t reatment
ang u
Ġinclud es
Ġaut o
G S
Ġdetail ed
Ġin n
qu is
Ġprogn osis
alle l
Ġn ode
Ġrecogn ition
ĠN S
Ġabund ance
Ġ âĪ
Ġc re
ĠN O
Ġfat ty
H S
Ġm l
ĠU S
ew ork
ab or
Ġreflec t
Ġsumm ar
Ġcomple ment
Ġclinical ly
o form
ra f
F S
Ġre plication
Ġint estinal
iti vely
Ġcomp rehen
Ġchall enge
im ent
Ġar th
opro tein
Ġsup ported
Ġgrow n
ific ations
Ġrepresent ative
Ġmembran es
mit te
Ġfamil ies
II I
Ġh ab
ill ed
Ġas pects
Ġchann els
A b
ĠS ince
Ġas k
ĠG roup
Ġres on
Ġwork ing
ĠS ch
Ġprob ably
F urthermore
Ġ200 3
Ġinterval s
Ġmy el
Ġaim ed
ipp ocamp
Ġmin imum
Ġ '
Ġre plic
Ġcr uc
Ġachie ve
ĠN ational
ĠS P
oz yg
Ġtum our
ĠM R
Ġatten u
Ġ enter
Ġanalys ed
kele tal
Ġmid dle
Ġstep s
Ġins tit
Ġad op
Ġdec l
Ġmanufact ure
od s
Ġchrom at
Ġneut ral
res t
Ġqu al
dom inal
th al
Âł 4
dim ensional
b ly
g g
Ġcomm erc
Ġs pl
le ts
Ġfrequ ent
Ġto m
Ġrepresent ed
Ġcentr ifug
M L
Ġas ym
Ġinf ants
Ġconn ec
ch ar
Ġcyt otox
Ġsex ual
Ġcateg ories
ver all
Ġsh ape
Ġvacc ine
Ġtranscrip tional
9 6
le vel
Ġori ent
Ġa er
Ġeffec tiveness
Ġpol ar
Ġan n
ly c
Res ults
Ġcol or
ak en
Ġdisc rim
Â ®
Î º
Ġanal og
ĠD i
Ġcharacteris tic
0 4
Ġcere bral
8 3
W hen
lo ad
Ġh ippocamp
Ġ rib
j ection
Ġtyp ical
Ġrandom ly
id ed
ne g
Ġsp eed
Ġcoun ter
Ġal b
I G
ĠIn di
Ġv es
Ġsepar ate
Ġt ake
Ġinterp ret
Ġc DNA
T wo
Ġreg ulated
Ġexpl ore
Ġm aking
Ġsm o
tt p
Ġsp inal
Ġanx iety
Ġwh ose
Ġcur ves
Ġanti oxid
im en
Ġd og
ri um
ĠN or
ox y
Ġacqui red
Ġgra di
Ġhep atic
Ġ5 00
Ġpl us
Ġk ine
Ġmul tiv
Ġh ouse
Ġpredic tive
Ġiss ues
8 1
Ġsub group
r ac
ĠH z
Ġtechn ology
ĠÎ¼ M
B A
Ġp el
Ġmin or
Ġcomp uted
Ġout put
Ġim pl
Ġsch ool
tr y
Ġnucle us
k in
Ġaccur ate
Ġresear c
er o
Ġf ig
inf ected
Ġresour ces
Ġmed ication
Ġhyp othe
Ġm arg
ec utive
ĠIn terestingly
Ġapp eared
Ġadhe sion
Ġen sure
Ġst abil
Ġdiet ary
Ġaff inity
p m
Ġcor tical
Ġphen omen
Ġto ols
h old
p ed
Ġbenef its
I S
Ġpl ates
em ber
olog ous
e ffec
Ġad equ
Ġcyt os
ĠÎ¼ m
lu ores
Ġprogram s
7 4
on omic
Ġlocal ization
erv ical
amm a
Ġar ch
ignific ant
Ġimp aired
Ġlat ter
ĠP L
Ġfram ework
tic es
a h
Ġv el
Ġlig and
is p
ĠC F
ĠF irst
âĢī min
ot rop
t aneous
Ġmanufacture r
Ġdim ension
entr al
Ġem ission
Ġreg ular
Ġprost ate
Ġ* *
Ġsuccessful ly
Ġtren d
Ġp y
res ent
E s
ĠSc ale
Ġocc up
Ġe qui
E A
ĠF urther
Ġvit amin
Ġan at
W ith
Ġcompar isons
G C
Ġfil ter
Ġs ed
ĠI R
Ġhyp ox
crib ed
Ġhe ight
Ġsub c
ir ing
medi ately
Ġrapid ly
olec ular
ĠT B
Ġimpair ment
Ġw ave
m o
Ġg as
it in
Ġprim ers
O P
ting u
8 2
Ġg ain
Ġdis ch
Ġinj ected
Ġtr act
Ġsens or
Ġcho ice
os en
Ġnormal ized
ĠRes earch
ĠAd ditionally
Ġinc lusion
por ts
x y
Ġ3 4
Ġeth anol
Ġinvas ion
or rh
Ġimplement ation
Ġem ph
pl ate
T L
Ġass igned
ĠS ub
P h
Ġintro duced
Ġhydro gen
Ġprogn ostic
Ġprepar ation
% ;
mitte e
ra de
ĠO f
9 7
Ġal k
Ġpredom inant
Ġt ax
Ġext rem
neg ative
ĠC V
lec tr
E GF
Ġhealth care
Ġon ce
Ġdis tingu
Ġbas ic
Ġprol ong
Ġf al
Ġpar allel
Ġan esthe
ici an
Ġbel ong
Ġventric ular
ex p
Ġman us
Ġop tical
Ġbehavior al
Ġf ron
si vely
Ġresist ant
Ġsatis f
Ġas th
artic ip
Ġy e
ax is
Ġplasm id
Ġcom pl
Ġocc urrence
Ġe con
Ġtransf ected
Ġdefici ency
Ġam ounts
opath y
Ġdatas et
) )
Ġtra ditional
Ġstimul us
g u
Ġthere by
Ġad mission
Ġcruc ial
Ġf ish
Ġg raph
ĠT GF
U sing
ch ange
Ġw ord
E V
s on
Ġno ise
ti al
yd r
ord ance
Ġprinc ip
Ġprom ising
it one
Ġir radi
Ġshif t
Ġtyp ically
ill s
Ġabs orption
Ġneu rolog
im e
Ġo il
Ġsu itable
Îº B
activ ation
ven ous
Ġse em
erv ation
Ġf etal
od ed
Ġpath ogenesis
Ġpro spective
ra b
Ġsign s
Ġinter mediate
Ġdiab etic
Ġsubsequ ently
f l
at ter
Ġvi ability
Ġill ness
D A
anal ysis
u ary
to tic
Ġsuper ior
Ġalter ations
Ġsub jected
Âł %
Ġrecomb inant
p o
Ġmor b
Ġexist ing
ĠP er
oh ist
Ġtranscrip ts
Ġc reat
an ted
Ġd ry
Ġfibro bl
Ġmyocardi al
port un
D ata
er a
Ġthe ory
Ġfrag ment
em a
Ġmo tion
Ġl and
Ġ200 2
Ġcommun ication
ĠRe g
Ġacc el
Ġcyc les
9 3
Ġo vari
Ġsupp ress
Ġt it
. .
Ġd raw
ul atory
Ġax is
Ġunc lear
ĠM T
Ġcorrel ations
en tical
Ġnanopartic les
Ġarter ial
ut aneous
Ġbre ak
Ġl ist
9 4
Ġte am
ist ant
b re
os ome
Ġcontrib ution
Ġhorm one
g ram
Ġultr as
ro gen
Ġsol utions
P re
ĠD e
ĠA ccording
Ġ6 5
Ġorgan ic
ĠUn ited
Ġsetting s
Ġex act
S R
ĠP M
Ġdef ects
Ġspon taneous
L P
ol l
Ġthough t
ens us
Ġ3 8
Ġtox ic
Ġsp read
ody n
Ġex pect
Ġsepar ated
Ġmanus cript
as ia
Ġclos ely
Ġphosph ate
Ġindepend ently
Ġbar s
Ġr h
ĠU K
ern at
Ġparen ts
ĠC ons
m i
Ġprim arily
Ġinvas ive
Ġang le
Ġsw it
ĠR OS
Ġc ervical
lud ing
Ġim mediately
Ġs at
Ġmain tain
Ġperiod s
Ġper me
Ġbiop sy
C o
Ġerr ors
roscop y
Ġra bb
ar r
ten ance
Ġdi verse
Ġaut ophag
Ġmalign ant
C N
Ġd up
Ġcomp et
Ġpath ological
h ing
Âł <
Ġop portun
Ġres ection
Ġbl ack
Ġf ore
Ġenc oding
Ġal ways
Ġrang ing
ĠH ospital
Ġoverex pression
Th us
Ġrecru it
Ġan not
ĠB oth
Ġvari ed
M e
Ġoper ation
og ens
Ġsal ine
Ġd y
Ġvari ant
Ġs izes
Ġprot ection
Ġattrib uted
Ġdistrib uted
Ġprot ective
or i
d ays
Ġre qu
Ġpl at
ac c
ĠL PS
ĠM E
Ġclin ic
Ġfrequenc ies
m ark
Ġtr ue
Ġdevelopment al
Ġsubstanti al
p atient
Ġ4 2
I ON
Âł years
Ġpos itively
Ġpancre atic
ol ytic
Ġde ple
Ġvalid ated
Ġm is
M B
ĠA F
Ġsim ulation
ĠC P
Ġon to
ĠB y
ĠT wo
ĠN ot
Ġt ail
ĠH S
av age
Ġmedic ine
Ġrec ip
Y P
Ġelec troph
Ġf all
Ġsur round
Ġlarg ely
s m
Ġ9 6
mon ths
Ġiniti ation
Ġlow est
9 2
Ġmo ve
Ġdep th
Ġmeas uring
Ġsuscepti bility
Ġl act
H T
/ âĪĴ
Ġth or
Ġl ibr
ron ch
Ġnucle otide
Ġregul ate
Ġne on
Ġt ree
Ġn ational
L S
ric hed
Ġbur den
d ep
Ġch osen
ĠMed ical
Ġtoler ance
Ġn itrogen
h al
Ġpl an
r uc
I s
O f
Ġser vice
pos ition
- (
en ari
Ġdecre ases
er ior
Ġdispl ay
Ġinf arc
Ġadj ust
Ġextrac ts
enc ies
t or
as al
Ġid entical
Ġinf iltr
Ġan tim
ar row
Ġre ached
Ġexten sive
ip s
Ġdele tion
Ġst ri
Ġtrans plantation
Ġlo op
Ġprec urs
Ġsynthe sized
âĢī 1
g et
uc id
ub iqu
Ġinform ed
Ġd op
ad der
Âł min
Ġg erm
m ax
ol ip
Ġabnormal ities
m m
s w
Ġext ended
Ġmeth yl
Ġac tin
hel ium
D P
um p
Ġdown stream
Ġmicro bi
Ġs em
Ġgast ro
n g
Ġa ud
ĠU V
ĠS NPs
n ight
ĠH F
Ġk it
Ġf resh
Ġre asons
Ġquantif ied
Ġ ~
Ġw ind
der ly
Ġ200 1
Ġpos itions
Ġmat ter
Ġmain tenance
Ġr ank
Ġj ust
M C
Ġw rit
Ġgrow ing
es e
Ġd ors
ĠA b
ĠC omp
Ġbal ance
Ġcomp ut
Ġresearc hers
ĠA nal
Ġfe as
C a
Ġpresent ation
w ith
ĠD ec
r ug
Ġd rop
Ġle af
Ġtransfer red
Ġseg ment
am b
Ġvari ations
Ġmetabol ites
Ġfib rosis
ok ed
ospit als
sc ale
Ġst ored
Ġm ap
Ġvol t
Ġcytok ine
Ġat om
Ġtw ice
Ġye ast
H P
Ġad s
an sion
Ġmagn itude
ĠH D
ines e
Ġde vices
art ment
ow s
ĠP K
Ġp al
Ġsc hem
Ġrad ical
Ġindi rect
Ġf ed
ĠS ystem
Ġab dominal
Ġbehavi ors
er ated
Ġsim ulations
Ġt er
c i
m ethyl
Ġst art
Ġag on
ol ute
Ġco verage
lu or
Ġtherap ies
ti ous
Ġmod ification
Ġcons isted
or age
ĠO ther
Ġread s
Ġembry os
Ġovari an
Ġsup ernat
Ġgra d
anc ies
Ġl angu
Ġcor d
Ġfrag ments
Ġresid ual
Ġ5 5
roscop ic
otyp ic
r s
Ġdon or
Ġreson ance
Ġa ver
Ġstim ulated
Ġinter n
ĠG FP
Ġp seud
Ġid enti
mon th
w here
Ġme et
Ġacc omp
Ġon c
ran e
n o
Ġar m
ĠM e
Ġbenef icial
Ġmetast atic
Ġdis p
Ġplat form
Ġ ions
Ġcateg or
am ent
ĠH A
Ġasth ma
n ers
Ġpol yp
l s
Ġthe ore
al pha
Ġst aff
Ġmi RNAs
ater ial
ox yl
gen eration
Ġheterogene ity
ĠSimilar ly
over n
Ġadvant age
Ġiss ue
Ġmost ly
Ġtak ing
Ġcandid ate
Ġdis tal
Ġep is
Ġmi RNA
b p
Ġa ware
Ġref erred
Ġtub e
in us
ĠAm ong
ĠN K
Ġrang ed
g ing
Ġvirus es
Ġmicroscop e
LI SA
D a
Ġconstruc ted
Ġchang ed
quenc es
Ġanaly ze
Ġtherm al
Ġt able
Âłm g
Ġc y
Ġparti ally
Ġb ul
ĠO r
Ġampl itude
enz a
Ġneut roph
v ascular
ĠA NOVA
b an
Ġfeed back
ĠB e
ĠL i
activ ated
t heless
oc ity
Ġdep ending
Ġmorb idity
N K
hy de
9 1
ĠS w
is her
Ġmin imal
Ġ ure
Ġcall ed
Ġse qu
Ġexp ress
ect ors
de hyde
Ġperce ived
Ġaffec ts
Ġrecogn ized
Ġin oc
articip ants
at ch
ay er
Ġdeterm ination
Ġhist ological
Ġreli able
Ġfe eding
ch ym
Ġcar ry
op ic
R e
Ġoxid ation
ott om
Ġrec ording
Ġexp ansion
Ġdi ver
Ġpers onal
ĠC d
ĠB ecause
Ġmil k
Ġretrospec tive
quis ition
Ġ1 50
icro bial
ap se
Ġha em
ĠCh inese
Ġrecord s
Ġantibio tic
Ġ #
Ġc e
si an
Ġsimilar ity
Ġinflu enced
Ġur ine
Ġg est
ill in
Ġth yroid
Ġcl on
ren t
Ġt en
ac he
Ġret urn
Ġdetail s
Ġreg en
Ġgo al
Ġpossi bly
Ġreport ing
Ġsc enari
eth ods
Ġcere b
Ġve h
ĠThe n
ĠT echn
Ġcat he
Ġey es
omet er
A F
0 6
ac ing
Ġsumm ary
B oth
Ġexpl an
ĠP r
ĠQ u
ri e
asp ase
Ġel derly
Ġundergo ing
Ġr s
Ġtr ack
Ġneu rop
Ġh ospitals
Ġd ark
Ġg ive
Ġgradi ent
Ġh arv
ol ysis
ĠH P
Ġflu or
unc tional
Ġphys icians
Ġorgan ization
eli hood
id ent
Ġdom inant
Ġfacilit ate
Ġne igh
M oreover
r isk
we ight
c ents
ĠCell s
Ġur inary
if er
oc ar
Ġcomprehen sive
Ġ %
im er
Ġel ucid
Ġassemb ly
val ue
Ġmo b
arg ed
ac char
ran d
âĢī Â°
Ġrece ive
Ġan a
Ġgen otypes
ok ine
z ation
ig ible
ant ly
ĠL C
ĠO S
Ġinduc es
c at
t ra
Ġpos sess
Ġeffec tively
Ġhyd roph
Ġmorph ological
n t
Ġask ed
Ġvess els
Ġl oci
S O
Ġb en
ly cer
erm al
R s
Ġ3 9
Ġcirc um
M G
Ġdiff usion
Ġtra its
Ġmar row
oci ation
Ġele ment
ĠG C
d ers
Ġpl astic
Ġantioxid ant
Ġeas ily
A p
ĠSt ates
Ġpur ch
Ġbe gin
ĠN ew
Ġiniti ally
Ġavail ability
et er
Ġ3 00
Ġspect romet
Ġvol un
Ġconst rain
Ġsc an
Ġfail ed
ollow ing
b eta
hen yl
s ub
âĢī ÃĹ
ten tion
Ġcompos ed
Ġrout ine
Ġexpl ored
itud inal
Ġe gg
Ġdel ay
en ed
an a
Ġcon jug
Ġmal aria
Ġpath ogen
Ġc oding
ĠP atients
M O
Ġtask s
ac er
Ġvel ocity
ot es
Ġantibio tics
Ġble eding
vers ely
row n
ery th
Ġexten sion
Ġh um
Ġn ine
ĠC B
ad j
or g
Ġcon form
ink ing
ĠAs s
Ġm ature
ĠC L
ad a
Ġch am
ĠS pec
Ġus ers
Ġparticip ant
con taining
g ue
ĠT LR
ĠAmeric an
P U
Ġk g
Ġser ious
Ġrespec tive
ĠT R
u ous
Ġis oform
t ub
v as
Ġdocument ed
Ġon line
Ġsi RNA
Ġfract ure
Ġwork ers
Ġampl ification
Ġbiomark ers
on tal
Ġcommerc ial
Ġt y
Ġprac tices
Ġchromat ography
Ġstar ting
n c
ĠI s
Ġdec line
Ġintra venous
Ġload ing
um ab
Ġbi ochemical
ec ting
Ġsupp ression
Am ong
Ġprim er
Ġconver sion
Ġac quisition
ĠI D
az ole
a res
Ġdef ic
Ġsubstr ates
ĠM g
ĠM I
Ġnot e
Ġnumer ous
Ġeff orts
ra ft
Ġr ise
Ġcl im
Ġreg ist
io tic
Ġchalleng es
u ed
Ġf ace
Ġpre m
Ġle aves
act in
Ġmicro bial
Ġoccur ring
Ġpsych ological
w ater
Ġn ative
um ents
E F
Âł 5
Ġlay ers
od on
Ġimplement ed
Ġar tif
went y
it ary
Ġproxim al
ĠS outh
ĠB r
Ġlab eled
Ġbu il
ell ow
erc ul
V s
Ġin stead
ost asis
Ġinter face
ot in
iv es
f ort
Ġh ard
res istant
Ġcommun ities
ur ine
ins ic
Ġst orage
Ġintegr ated
Ġover night
id al
os ystem
ant h
Ġpar ts
Ġmill ion
Ġcons ecutive
Ġultras ound
Ġfluores cent
Ġconstruc t
osyn thesis
Ġl ob
Ġequi valent
Ġpot ent
Ġsubun it
M s
ati f
ĠM P
ĠR ep
Ġtraum a
Ġpre fer
D uring
es ter
ĠM AP
Ġmen tioned
ĠZ n
Ġmonit ored
Ġrecruit ment
ĠD uring
ĠL V
Ġfib er
Ġrecru ited
ĠInde ed
on in
iz ations
Ġfib ers
A K
Ġb ox
N s
v ation
Ġd est
Ġfav or
z ard
Ġsens ory
am ination
Ġbarri er
Ġ4 4
Ġidenti ty
A g
Ġcoun ts
Ġcorrec tion
Ġshor ter
Ġadj acent
F T
Ġco ver
Ġc av
Ġd end
A MP
ĠD ep
Ġint act
Ġconf lic
cl er
Ġsepar ation
Ġcap s
Ġenrol led
B R
Ġtrans formation
ĠC K
Ġk ind
Ġy ou
Ġadoles cents
ĠS ur
Ġabs olute
Ġnec rosis
ĠM MP
Ġs plic
Ġprotoc ols
Ġartic les
ĠU sing
Ġexc ell
v ate
ĠC u
Ġequ ation
Ġalle les
Ġcryst al
Ġunc ertain
Ġsmo oth
Ġar row
Ġdepend s
T E
ore c
Ġchar ge
ĠP S
en es
ĠS L
Ġnec k
0 7
Ġox ide
Ġgro und
There fore
ĠN P
Ġk ne
Ġclass es
Ġen rich
Ġc is
Ġre n
Ġsynthe tic
Ġemo tional
Ġcl ar
Ġqual it
it or
Ġb ronch
Ġprolong ed
ph ase
Ġver te
Ġepid emi
Ġc reated
is ter
Ġth in
Ġrespond ents
Ġm ach
Ġat tr
Ġw alk
Ġ4 1
Ġorgan s
Ġtemper atures
Ġdeath s
Ġlangu age
Ġâī ¤
luores cence
ĠS ome
ill ing
âĢīm g
f aces
Ġsub t
Ġcoun try
Ġaffec ting
B s
ov ine
Ġcomp uter
Ġar ray
Ġret inal
Ġphen otypes
Ġlog istic
ĠB P
Ġpath ology
ect in
Ġimpro ving
Ġrele ased
ĠEurop ean
Ġn erv
5 00
s in
Ġe ch
ur ies
ĠP ol
Ġstand ardi
ĠP E
Ġtom ography
Ġre ag
Ġneg atively
ac r
Ġcompar t
sec tional
Ġdel ayed
ĠÎ ³
Ġcomp eti
Ġmitochond ria
Ġro t
Ġvalid ation
ensi tive
u tional
Ġorgan isms
eren ces
Ġinvol ves
Ġp le
Ġw ar
ĠH CC
Ġ201 8
Ġ ubiqu
epti de
Ġh or
ĠS econd
Ġ4 3
Ġun treated
Ġutil ized
Ġcateg ory
M ed
rief ly
Ġe lic
ul ti
0 8
Ġpro ject
ib ration
Ġinterest ing
en ic
Ġtransl ation
ĠB ased
ify ing
al ine
Ġsupplement ed
Ġpolic y
Ġdifferenti ally
abil ities
g al
Ġ4 6
Ġsaf e
Ġsh ared
atis tical
ol ine
Ġext ra
Ġdog s
Ġsc aff
Ġman ifest
yc l
Ġod ds
Ġbi of
Ġpartic le
Ġ ;
Ġpeak s
âĢĬ 0
Ġtr yp
Ġ Ã
ensi ties
ver sion
Ġseg ments
Ġexcell ent
Ġidentify ing
Ġnucle i
Ġl um
ochem istry
Ġsimultaneous ly
Ġparticip ate
Ġmiss ing
Ġgl ass
Ġhouse hold
Ġput ative
m ing
ĠC M
D I
Ġloc ations
Ġn od
ĠS er
Ġha pl
ol in
ĠA S
Ġfr actions
jec tions
C E
ĠS R
Ġimmun ohist
Ġre active
Ġacc oun
Ġpneum onia
ever theless
it ory
ĠIn tern
Ġelectr onic
Ġunderst ood
] ;
Ġinflu enza
Ġreli ability
Ġtrans genic
ĠW h
Ġob struc
Ġim plications
Ġloc us
0 9
Ġpro gen
n a
ene tic
Ġrec urrent
Ġli ve
Ġmat ched
Ġalign ment
Ġvolt age
m g
ĠH ere
Ġconsid ering
Ġur ban
Ġrepe at
W h
Ġregion al
Ġdiscus sion
Ġhab it
i pl
ĠInstit ute
Ġfol d
Ġcul tiv
Ġinteg ration
Ġcons ists
Ġsu ff
Ġsal t
Ġmultiv ariate
Ġecon omic
ĠC an
orec tal
entr y
Ġacc ordance
le y
om at
ĠM O
obl ast
Ġpath ogens
Ġits elf
Ġcryst all
Ġv enti
Ġconse quences
Ġdup lic
Ġr ing
Ġser ve
Ġterm inal
Ġadhe rence
Ġex change
Ġdistrib utions
Ġinterpret ation
Ġnew ly
Ġfield s
F inally
ĠS A
Ġlik elihood
Ġsur faces
Ġadequ ate
Ġen riched
ĠM od
i ver
Ġv ul
ĠE th
Ġpolymer ase
Ġlocal ized
itone al
Ġsp e
Ġmod ifications
Ġph ases
Ġrisk s
Ġgra ft
ococc us
gl uc
ĠC X
Ġtransi ent
a id
ĠJ an
Ġlarg est
ĠN H
Ġvol um
Ġcap able
Ġact ual
Ġout side
Ġlymph ocytes
F C
ozyg ous
ĠS S
c or
at he
anc ing
Ġinst ance
ĠM ost
p i
Ġpl a
- ,
ut h
ĠM in
ocl onal
on t
Ġgen omes
B y
Ġbe y
par t
d ata
Ġm akes
Ġrecommend ations
Ġbey ond
C omp
ing er
st ate
Ġz one
duc ing
ĠD R
Ġisol ation
W hile
ul us
T C
it us
Ġcons ensus
Ġhighl ight
oglob in
al dehyde
Ġm s
Ġat he
p ing
an o
Ġob vious
Ġconsist ing
Ġyoung er
Ġfal se
Ġa ortic
Ġvary ing
Ġveh icle
Ġlong itudinal
Ġrel ax
ĠS up
Ġret rie
ot a
Ġdatas ets
ĠP V
z er
Ġ eryth
Ġv as
Ġnerv ous
Ġm apping
ĠS m
pro tein
Ġparticip ation
ur ally
H e
Ġre vers
ffici ents
Ġabs orb
Ġassum ed
Ġantim icrobial
ic les
ach ing
Ġdef ine
Ġallow ing
ĠN e
Ġs n
Ġvacc ination
ĠNa Cl
oscop y
Ġg overn
Ġas tro
Ġrestric ted
Ġne arly
ĠC al
Ġmusc les
Ġ1 000
Ġprog ress
Ġhydro ly
m en
Ġpul se
Ġplate let
ww w
Ġautophag y
Ġo v
ĠÂµ g
D s
ĠC ar
Ġconc lude
ĠE LISA
Ġreduc es
ĠP P
Ġim plicated
int estinal
ces sive
Ġscaff old
ĠA A
Ġman ip
ĠT rans
ĠR P
Ġphenomen on
ĠR h
Ġ199 9
Ġvalid ity
M RI
Ġop pos
Ġinj uries
Ġmic ros
Ġreconstruc tion
Ġdisch arge
Ġd ental
ĠS NP
ro se
ĠS EM
Ġappear ance
Ġnur ses
Ġr ural
ercul osis
Ġm im
Ġst op
ĠâĪ ¼
Ġg ap
Ġhe n
Ġeng ine
ĠN MR
Ġmamm alian
Ġ5 6
Ġcol le
Ġag ing
link ed
ist ance
ĠS E
Ġchrom atin
Ġcoup led
ĠC r
Ġn ic
Ġconc luded
Ġ12 0
Ġcontrol ling
Ġfor ward
Ġsol uble
ĠAl so
Ġmother s
x in
Ġn one
Ġs keletal
Ġsci entific
Ġsc anning
Ġpurch ased
Ġpredict ors
olog ists
ĠV EGF
Ġ5 2
Ġto o
ĠAd ditional
Ġcoe fficients
Ġimmun os
Ġz ero
ĠCom mittee
v o
Ġf ores
ill ance
os ine
ch ang
Ġbil ateral
ul um
Ġg ut
Ġenhance ment
' -
E n
Ġinf usion
I M
Ġdesc ri
Ġparen t
and ard
Ġpres ents
ile p
Ġdist urb
Ġregul ating
Ġn M
Ġv ag
g ens
k t
Ġsh ock
Ġprog ressive
Ġexperi ences
Ġabund ant
am ples
D espite
d ose
Ġcom orb
Ġemerg ency
Ġpro pose
Ġsim ulated
Ġve get
Ġsoci o
A r
Ġb p
ch ron
y ing
Ġp ure
an ine
Ġmodel ing
Ġmax imal
app ed
N H
Ġmod ulation
Ġassess ing
OS E
PS S
Ġmetast ases
m al
ĠS uch
Ġquantif ication
Ġd ual
ĠE S
oscop ic
ĠA ustr
ĠS o
Ġcirc ulating
Ġsk ills
Ġve in
v ity
Ġb ovine
Ġco vari
Ġins u
Ġprocess ed
Ġan sw
us ions
ov irus
oti des
Ġcoup ling
B ased
U T
Ġt un
Ġon es
Ġbe am
Ġrepresent ing
Ġinstruc tions
Ġeth n
Ġt ext
Ġof fer
Ġne ver
] ).
ici ent
Ġfix ation
at um
Ġsynap tic
Ġdistingu ish
Ġperce ption
Ġgl i
Ġmean ing
ĠC or
Ġexp and
ĠÎ ´
Ġdecre asing
Ġ2 50
Ġresid ue
Ġconsider able
U N
Âł S
Ġcharacter ization
Ġsupport ing
Ġneurolog ical
f am
it o
Ġcol d
Ġinstr ument
Ġpers ons
Ġauth or
Ġsitu ation
Ġdef ect
Ġw estern
Ġstar ted
Ġaccomp an
ĠC C
ip itation
Ġcatal ytic
sc ill
Ġro und
Ġc aspase
ĠM ETHODS
Ġtheore tical
ĠS DS
ke y
Ġphyl ogenetic
Ġelectro de
ĠM ore
Ġdefin ition
l ands
ros ine
Ġimmun ity
Ġevid ent
Ġenrich ment
- -
ĠA B
i O
in ine
D i
S igma
ĠN C
Ġcle avage
Ġconduc t
Ġischem ic
ocar cin
on tin
ac tic
Ġsurround ing
Ġu ter
s ts
c ome
ell ar
I A
Ġcompos ite
Ġlig ands
que ous
Ġcontrib uted
ys ts
Ġ4 7
Ġampl ified
Ġl ap
Ġdil uted
or ation
Ġpl ots
Ġmon oclonal
Ġped iatric
Ġdors al
all ing
Ġbec ame
Ġl ost
enti a
Ġbl adder
Ġcyc l
Ġknock down
Ġestim ation
Ġcontinu ed
Ġkne e
ell ed
PA R
Ġstr atif
Ġfil m
Ġconf ig
Ġwrit ten
Ġ entry
ĠH PV
) /
as sive
Ġhe aling
ĠB D
Ġinvestig ations
Ġtrans por
fer ase
Ġsepar ately
Ġcluster ing
Ġorient ation
v itrogen
Âł Â±
Ġsusp ension
Ġt el
Ġcomp ens
Ġblock ed
f low
Ġdepend ence
Ġrabb it
Ġinhibit s
Ġlack ing
ran ial
Ġre tention
Ġsupp ressed
ple te
Ġun iform
Ġdes i
Ġex cess
S ince
ang i
Ġup regulated
G en
u ff
und red
Ġrepl acement
Ġhypothe sized
ic ted
Ad ditional
oc rine
ĠF A
Ġap plic
Ġspect roscopy
Ġcaus ing
Ġmarked ly
Ġprob es
os al
Ġenviron ments
u z
ar ray
P l
Ġdem ographic
Ġdepos ition
Ġreproduc tive
il ities
Ġfibrobl asts
Ġsp in
c y
Ġha ir
u vant
Ġstatis tics
cl inical
Ġfew er
re w
ĠRes ults
Ġadap tation
ĠMed ic
Ġmedic ations
Ġha zard
Ġpoor ly
il ib
i ents
te en
Ġin ner
ĠA rab
ĠAfric a
Ġattem p
H F
g a
ros cler
ann ed
ĠH CV
av y
âĪĴ /âĪĴ
v ol
Ġo scill
Ġl isted
Ġne ph
Ġins ide
Ġsch iz
Ġdig es
om an
Ġse iz
RP OSE
Ġdeple tion
at ase
Ġg old
ram atic
Ġaccompan ied
Ġcyt ometry
Ġdatab ases
ti tion
Ġend omet
Ġvis it
H g
Ġconf ound
Ġc er
ĠOn ly
am ate
immun e
ic o
CA T
Ġvis its
Ġsur ge
Ġanti gens
Ġven ous
ĠJan uary
d rich
he rent
ti ll
Ġdeterm ining
Ġvis ible
Ġinfec tious
n atal
ĠB io
ĠEx per
Ġconse quence
ul ture
Ġpl anning
Ġmm ol
ol i
oster one
ĠF rom
ĠE GFR
Ġdemonstr ates
] )
k s
tim es
Ġcol orectal
Ġg et
Ġischem ia
Ġus es
Ġinter fer
r ig
ach ment
Ġinser tion
g ent
Ġd ramatic
L e
Ġabs ent
ĠB R
âĢīm M
St ud
Ġobes e
Ġwh y
ber g
Ġparen tal
ul ative
ĠG u
Ġk e
Ġm yc
ur ance
ain e
Ġdi al
pos es
Ġhome ostasis
Ġbiof il
Ġac tions
Ġsession s
3 00
ocyt osis
Ġb ands
Ġcap ture
Ġs lic
Ġfig ure
Ġv ectors
Ġhydro x
Ġle t
et ric
l ip
s yn
odyn amic
line ar
go ing
in ess
ĠI P
Ġat tit
Ġen ough
ist ing
ens is
ip it
Ġ5 1
Ġdisc overy
Ġhem orrh
Ġworld wide
W T
ĠG l
N R
ĠB L
oph age
pro t
Ġadap tive
Ġhypox ia
Ġgastro intestinal
Ġtransf ection
v ance
Ġevolution ary
Ġsus tained
Ġe ti
ac co
ĠC YP
Ġ5 4
ion e
oph ren
Ġc hest
Ġwid th
Ġcytoplasm ic
ĠS H
Ġper c
Ġ6 4
ary n
Ġcham ber
Ġch ick
Ġirradi ation
c arb
st age
Ġ4 00
Ġmelan oma
un e
ra ys
z en
p ass
or ld
ap pro
gen e
Ġcomplex ity
Ġadvant ages
Ġa queous
Ġpre operative
t arget
ĠA Î²
Ġextrem ely
Ġan c
om ical
Ġre h
Ġfunction ing
Ġalb umin
ath y
Ġexc lus
M ost
Ġro d
Ġper i
Ġun s
Ġlim b
Ġcent ers
Ġdetect able
Ġword s
Ġpredominant ly
S er
b ound
ĠH ence
op o
Ġdemonstr ating
ĠAn other
Ġhep atitis
L D
ĠA K
Ġindic ators
fact ory
ĠS M
Ġ5 3
Ġpregn ant
os ide
ĠA MP
Ġdis tr
Ġcomb inations
p en
Ġqualit ative
Ġcharacter ize
ĠF isher
Ġ8 5
Ġbegin ning
Ġl arv
Ġ199 8
Ġam yl
Ġpers istent
Ġconcern s
Ġmo tiv
o or
ĠE C
ap ed
Ġpresent ing
ec al
+ ,
Ġcl ones
Ġrepor ter
Ġcontrib utes
Ġh undred
Ġlim itation
Ġâ ĸ
Ġcathe ter
ic in
Ġh our
Ġlim its
Ġphys ician
Ġinfarc tion
o in
Ġf oot
os ity
ĠS al
Ġa u
Ġs ent
ur ity
Ġrestric tion
Ġm urine
s s
iv ered
Ġsatisf action
b orn
on o
Ġ( >
itr ate
re ported
ilib rium
Ġintr insic
Ġderiv atives
Ġann ual
Ġinterp re
if t
E B
Ġc aro
Ġmem ber
F urther
enti ally
Ġkine tics
op sis
Ġo uter
Ġas pir
CL C
Ġconn ected
â Ħ
Ġcl a
def icient
Ġv ide
en in
Ġdifferenti ated
PU RPOSE
b ut
ur ia
Ġchild hood
Ġrepresent ation
Ġcor ne
lu x
Ġbi osynthesis
ĠM et
Ġper oxid
r action
ĠH LA
lec t
Ġ4 9
Ġrem od
Ġapop totic
Ġconc er
Ġt ag
ĠIn ter
Ġen s
Ġgl and
i vers
ĠE r
Ġdi ed
Ġnur sing
K O
om ycin
end s
Ġneon atal
U V
as si
Ġs ple
ĠL ab
gl ut
Ġheterogene ous
Ġactiv ate
tum or
is ions
Ġval u
Ġsuscepti ble
S p
Ġst ay
Ġevalu ating
Ġinterview s
Ġsurve illance
O T
h ttp
i ance
Ġan th
Ġus er
Ġop tions
Âł months
Ġg amma
ĠT P
Ġcom plication
Ġsup ports
Ġ9 9
in n
âĢīm m
Ġemph as
Ġfl av
av ing
t ures
Ġfib r
Ġrequire ments
ĠS I
ĠM o
Ġrec overed
O verall
phosph ate
ĠG ene
si bility
Ġint ensive
Ġstandardi zed
) ).
ĠS F
ĠH b
t ail
Ġsc ales
ang l
Ġpart ners
ĠA I
Ġnam ely
ĠP ar
Ġwh om
M AT
m at
Ġcontr ac
act ing
Ġcor tic
ĠH E
Ġcalc ulate
Ġpredict or
c omp
Ġ )
Ġp il
es ides
Ġcav ity
F rom
R R
Ġdis ability
Ġhor iz
Ġhen ce
le uk
Ġsol vent
ic ular
Ġprovid ers
Ġdem entia
Ġc am
Ġvir ul
oh ydr
p H
plic it
L T
Ġpolymorph ism
Ġw ays
ic illin
ar in
Ġim plant
Ġen ab
IG N
b ody
Ġan e
ab ric
Ġperform ing
00 2
Ġtub erculosis
ure us
Ġep ilep
lab eled
Ġk ept
Ġpsych iatric
ad y
Ġpol l
Ġclear ance
d is
Ġt rap
Ġhist one
bre ak
S c
il ateral
Ġk er
Ġsubstanti ally
Ġcre ate
Ġcop y
d yl
ac ial
ĠK it
Ġp aired
Ġtrain ed
om ers
Ġg on
Ġg ave
ill us
Ġcar til
us p
Ġcorrespon d
Ġpool ed
at o
ed ded
Ġsubun its
Fig ures
pr ising
ĠN evertheless
Ġutil ization
Ġhe avy
Ġpar ad
Ġfract ures
Ġbind s
Ġschiz ophren
S ub
cri p
Ġathe roscler
Ġ ice
se lec
C ell
Ġtechn ical
ĠF ran
Ġto b
Ġfol lic
Ġtreat ing
cri ption
Ġdel ivered
Ġ5 8
Ġpharmac ological
ĠC enter
ch lor
Ġimprove ments
lus ions
B i
Ġqu ad
Ġpromot ing
Ġs ense
ĠCon trol
Ġpublic ation
Ġair way
uc ifer
ĠD espite
yp er
Ġb ed
Ġdiff ered
Ġn arrow
Ġpromot es
ysi ological
it ting
Ġpen et
Ġse arc
Ġmat uration
Ġprecurs or
d raw
Ġper f
rec ted
Ġbec omes
Ġth ym
Ġmethod ology
ĠSci entific
Ġoverl ap
p ly
Ġstrong er
S everal
ĠP G
Ġradi otherapy
Ġmove ments
00 5
B l
Ġc um
ĠM L
oper atively
Ġtren ds
Ġbarri ers
ĠS everal
Ġj ud
Ġel ong
Ġharv ested
Ġ5 7
Ġexist ence
P er
re f
cell s
Ġintro duction
+ /-
T OR
chym al
ol id
Ġpor tion
ĠK ore
ator ies
Ġblock s
AB A
Ġdimension s
T G
r ated
Ġadd ressed
Ġregard less
ĠStud y
Ġsupernat ant
ĠI GF
Ġper t
ĠD C
Ġbi ology
Ġpath ogenic
ĠPro tein
A nal
v ered
us h
Ġconsist ently
Ġvolum es
Ġpl ane
ob il
N e
ace u
Ġrecomb ination
B B
Ġmed ial
ste ine
Ġlibr ary
Ġiniti ated
ow el
Ġper fusion
ĠL DL
ment ed
Âł Â°
Ġb ottom
Ġrem ove
Ġprec ise
Ġflu x
Ġads orption
ĠIm mun
Ġaggreg ation
vas ive
s qu
ĠT F
Th ree
Ġex on
Ġver tical
ĠC N
Ġgreat ly
p ol
Ġacc es
Ġelectr ical
otrop ic
ĠS C
Ġvess el
m ut
ĠIn formation
Ġ199 7
Ġrem ark
RI AL
v ents
ĠM ean
M M
ul ates
ores is
hydro xy
L a
f ig
Ġst re
Ġr ich
ok ing
Ġ6 2
Ġobser ve
Ġatt ack
l ife
Ġalgorith ms
Ġresour ce
Ġasym met
Ġun p
Ġto ok
ud es
Ġphen otypic
Ġed ge
am ental
Ġtra ject
Ġprac tical
ur ys
Ġother wise
Ġben ign
Ġp ip
ri tic
Ġb enz
Ġa ureus
Ġch ains
Ġembry onic
Ġvolun te
ensi tivity
Ġem pir
Ġrele vance
Ġregul ates
Ġvalu able
( +)
Ġpro min
ophage al
r act
Ġpro v
S h
Ġsign alling
Ġop tion
ĠP ET
Ġsc ler
Ġr ice
ĠAfric an
Ġcytotox ic
Ġh ip
emb rane
ins on
id a
Ġlip ids
Ġsal iv
Ġf aster
re quenc
ly ce
ast y
Ġchalleng ing
st olic
ĠS V
Ġdon ors
Ġmicro gl
p an
Ġenc our
Ġ( <
oid al
v ic
. âĢĿ
Ġoper ating
ĠB riefly
ari ties
Ġprofession al
her mo
âĢī 10
MS O
Ġsupplement ation
en ia
em por
ĠPre vious
ĠF our
ES IGN
Ġco vered
Ġob ject
Ġepit helium
F e
ĠST AT
Ġdil ution
ati gue
ĠP F
ĠB o
form ed
Ġexam ples
Ġarch it
Ġspectromet ry
om it
Ġg ir
ĠG iven
anc ial
t ox
Ġstandard s
Ġlab or
raz il
Ġinf ant
Ġlymph oma
Ġgu ide
Ġfung al
Ġet c
ph yl
Ġyield ed
Ġadi p
at her
ec onomic
Ġper spective
Ġexc it
week s
Ġoppos ite
ocarcin oma
Ġtim ing
Ġparticip ated
Ġcare ful
ĠÎ¼ L
el ves
Ġr ating
li k
Ġhybrid ization
Ġform al
f e
Ġdig ital
g ence
âĢ ľ
Ġprofession als
Ġen able
adi ly
Ġspectr al
Ġadjust ment
B ecause
Ġc ode
ĠC are
or ous
Ġ6 3
Ġindic ator
Ġeduc ational
ili ary
Ġconnec tivity
Ġconcer ning
og ether
Ġad ding
Ġad ren
Ġop i
Ġins ight
Ġradi o
Ġwind ow
Ġm os
ĠG S
Ġinvol ve
Ġenzym atic
Ġcoll abor
i vely
ucifer ase
ĠD A
Ġdim in
ĠCR C
ĠCS F
Ġst rom
Ġf abric
CA M
âī ¥
Ġcomput ational
Ġdescri ption
om b
Ġep ig
Ġsubt ypes
h yd
ab s
Ġproduc ing
hydro gen
U R
he res
Ġr ig
Ġim mediate
Ġc rop
Ġb reat
âĢī nm
Ġmonit or
a pl
ul ose
Ġconsid eration
ĠP H
Ġreg imen
Ġout break
omic s
Ġd rain
ec ture
Ġsc hed
Ġvac u
M ean
Ġtra ff
Al drich
Ġy ellow
Ġpolymorph isms
ac ic
Ġastro c
Ġhippocamp us
Ġtob acco
Ġfit ness
ps is
Ġwa vel
Ġreplic ates
) ]
Ġparas ite
Ġaware ness
ĠN AD
Ġmin eral
Ġf ever
Ġqu ite
Ġdirec ted
a it
Ġgen us
Ġcalc ulations
am ple
Ġse ason
Âł days
ĠG P
Ġgra f
ĠCO PD
Ġul tim
ur ated
Ġpro ved
Ġmo bility
ĠV al
Ġins ights
of luorescence
ig m
Ġcont ents
Ġhe x
ĠG O
Ġdescrib es
Ġneuro de
s k
Ġpres s
ĠNor th
Ġsu ic
Ġfr uit
Ġty rosine
Ġsc atter
pl asia
Ġinc ome
Ġas c
Ġchromos omes
Ġarth ritis
Ġsh are
âĢī +
Ġtem plate
AT P
Ġne ither
Ġm aps
ot rans
Ġpers ist
opath ological
+ /
a fter
ven ess
Ġ6 7
Ġincreasing ly
Ġte le
Ġclim ate
ver sible
Ġinflu ences
hes es
Ġlip oprotein
Ġl ens
ĠEn g
ec k
ĠN on
val ues
eng ths
Ġfoc al
Ġmax im
e b
Ġconstruc ts
adj usted
abil itation
ophil a
h igh
hem atic
aterial s
Ġintegr ity
S V
Ġprote ase
ad en
Ġexplan ation
Ġc yst
port antly
t ors
Ġb odies
Ġresid ents
Ġbiom ass
Ġcartil age
Ġscreen ed
m er
Ġvir t
uct u
Ġlarv ae
ace ae
Ġindic es
Ġup stream
Ġhyp oth
ac in
Ġelectro des
Ġinc om
Ġchang ing
U D
Ġam b
Ġ6 1
ĠT G
Ġs inus
Ġon going
Ġdec isions
Ġtechn ologies
zym e
l ig
Ġcon gen
def ined
Ġex ists
roph y
Ġsym met
cep ted
Ġacet ate
al ities
Ġpredic tions
Ġneur on
Ġ199 6
cep tions
ocy tic
Ġcolon y
Ġsple en
Ġl os
i ke
Ġs ound
ro zen
y th
Ġsubst ance
requenc y
up p
Ġacc om
cl ass
Ġregen eration
Ġs emi
Ġtr im
n el
ĠIntern ational
1 000
Ġattenu ated
Ġsus pected
Ġfacil ities
Ġfund amental
Ġsummar ized
r ight
re te
Ġregul ator
ĠÂµ M
Ġdr inking
Ġclos ed
Ġpack age
id opsis
Âł 6
Ġinhibit ing
Ġperme ability
Ġneigh b
Ġeff ort
it ol
Ġcorrel ate
ar th
Ġcalc ulation
ĠAnal ysis
Ġm ess
os ed
si ze
Ġaim s
f rom
Ġde b
roph ic
Ġa ug
Ġth i
Ġag es
arc oma
Ġgran ul
ĠB razil
Ġconc omit
Ġpropor tional
F R
Ġn it
ia e
ĠS i
Ġmicro array
Ġcompar ative
Ġleuk emia
her n
Ġnutri ent
Ġt rees
rough t
Ġutil ity
t ase
Ġm ell
Ġreview s
Ġblock ing
1 01
Ġsimilar ly
Ġs or
Ġ6 8
Ġintern ational
Ġbul k
Ġwith draw
Ġmo un
Ġass ign
Ġform ing
Ġmain taining
Ġdefic its
âĦ ¢
ĠN i
OBJECTIV ES
Ġfron tal
Ġres c
In vitrogen
Ġ6 6
Ġrequ iring
Ġschizophren ia
en viron
om on
op rec
Ġhe aring
Ġsequenc ed
Ġfl uctu
cept or
Ġattem pt
Ġthe ms
ul ties
ot omy
se q
Ġsampl ed
Ġelev ation
Ġfin ancial
Ġthems elves
Ġrang es
en osis
D C
ough t
Ġantagon ist
Ġanesthe sia
Ġatom s
roc ytes
ĠDec ember
Ġdi ag
unc ed
Âłm m
Ġagon ist
12 0
Ġf atigue
qu ito
ĠD ifferen
Ġconstit u
Ġp i
Ġh arb
Ġaut omatic
âĢĿ ,
a vi
ed uc
Ġg rain
Ġse psis
Ġke ep
Ġm ol
ptom atic
ic tion
ĠS W
ĠE P
Ġpreval ent
ur a
all ed
Ġdec ades
Ġtum ours
Ġref err
Ġ5 9
a uc
Ġaccur ately
Ġd erm
Ġsupp ly
Ġtransl ocation
Ġste ady
Ġprefer red
c ol
in ating
ĠM G
Ġad mitted
Ġpar a
Ġhom olog
Ġprevent ing
Ġl ifest
ĠT M
Ġclass ical
Ġdri ven
Ġbl ind
Ġso le
Ġtransform ed
d ri
ĠB ay
ther n
Ġgl omer
hy th
4 00
Ġt ip
Ġinfiltr ation
a emia
Ġpredic ting
ick ing
adi an
Ġval ve
ry st
Ġpath oph
AS T
) (
P K
sp ring
Ġvul ner
assi um
Ġdeli ver
oph osph
cat enin
ĠM al
Ġb owel
Ġoverex p
m p
ĠS O
Ġhom ogene
Ġclin icians
Pre vious
G l
on ate
ier arch
Ġemerg ing
Ġnorm ally
Ġprincip al
act or
Ġcoh orts
Ġpre ced
Ġun able
t d
am ycin
Ġsp ine
Ġread ing
Ġangi ogenesis
Ġrepl aced
Ġform ula
ĠT E
op es
In c
Ġra ised
Ġquantif y
Ġst ere
um ber
Ġeas y
t hen
Ġwe ights
Ġsy stolic
Ġt ight
Ġl amin
Ġmet ric
port ing
Ġexc lusion
* *
âĢī 2
Ġvi ol
Ġhighl ighted
ap tic
Ġra w
ĠÎ¼ l
row th
ĠEurop e
B io
ĠTr is
Ġauto immune
Ġe osin
Ġad di
Ġcarb ohydr
leuk in
ĠO A
p G
ow er
Ġcytotox icity
Ġdifficult y
Ġexce ption
P L
ar a
Ġwalk ing
es tic
Ġreflec ted
i j
ĠCl inical
Ġhydroph obic
a por
ul y
ĠB M
Ġret in
o on
Ġanaly tical
ĠTh ree
Ġneutroph ils
B e
I g
Ġas pect
cl usion
Ġmob ile
Ġm om
ĠS igma
Ġro ots
Ġz inc
Ġprec ision
ĠER K
Ġhippocamp al
Ġn ull
Ġpref erence
ĠN ote
Ġsim pl
ĠStud ent
] âĢĵ
Ġac ts
Ġtrans plant
ĠM ethods
Ġte eth
E RIAL
F I
Ġsurvi v
Ġnutri tional
Ġmuc osa
Ġcolle ag
Ġac cepted
ĠN Ps
Ġeffici ently
Ġinterf erence
ĠF ollowing
Ġfil ms
Ġfram e
Ġanal ges
och rome
Ġcont amin
âĢī Âµ
Ġun ex
ĠArab idopsis
re y
out hern
Ġx en
Ġacet yl
Ġcorrec ted
Ġcla im
Ġver ified
stim ulated
b ular
ĠH ep
Ġse ek
Ġapp lying
Ġsubc utaneous
CS F
P G
Ġe ver
T M
ro tein
Ġle ak
Ġup d
Ġcorrespon ds
Ġide al
U s
f ield
et te
Ġup regulation
Ġaut om
Ġagg ressive
on ym
Ġtrans m
Ġdep ressive
ĠC ancer
Ġph ag
Ġarter ies
Ġsubstit ution
Ġelectroph oresis
yp t
Ġmul tic
Ġf a
Ġr hyth
ys acchar
Ġdeterm in
Ġcontrib uting
Ġbiomark er
N OS
Ġpos i
Ġsp p
ogram s
ĠP O
ĠH igh
ĠSt atistical
aph yl
chang ed
Ġn asal
am s
Ġassess ments
Ġcompr ised
C or
e e
ĠB C
acter ial
ise ase
inc luding
Ġdiss olved
l ength
Ġim plantation
Ġar rest
Ġsyn th
]âĢĵ [
h aps
Ġcons ult
Ġprevent ed
ĠIndi a
o tion
a ved
he x
ĠW nt
Ġro tation
Ġsyn erg
par ison
Ġlear n
Ġl a
Ġdet ecting
Ġadi pose
m ann
o L
Ġf inger
Ġcare gi
Ġyield s
Ġqu ick
Ġsc ans
Ġj u
osystem s
g el
in ates
ĠM on
T B
Ġf ine
ĠK O
Ġatt ached
ĠÂµ m
t wo
N I
Ġglyc os
y te
ce phal
Ġ199 5
Ġprop ag
r ate
Î ´
Ġb rief
si veness
Ġdiffic ulties
Ġane urys
ĠC NS
Ġs ought
Ġe ct
00 00
Ġpre lim
Ġadop ted
ind ependent
Ġquestionnai res
Ġsubgroup s
Ġmos quito
Ġcolleag ues
si es
Ġdy e
Ġaud itory
G R
ĠM icro
Ġpr ono
Ġsugg es
Ġth reat
Ġat rial
ĠR O
Ġline age
Ġpig s
ĠF L
G O
P H
ĠH C
Ġves icles
Ġprono unced
al ed
ĠD S
Ġdi ast
Ġmod ulate
Ġcarry ing
Ġ9 4
Ġsyn chron
Ġcardi omy
p read
âī ¤
Ġ9 8
po ints
Ġcomorb id
ir ty
ĠD N
Ġexpression s
Ġcum ulative
The y
Ġrel apse
Ġcle an
Ġmacroph age
Ġmet all
ides pread
r ist
Ġch ond
ĠO verall
el t
s ensitive
atic s
Ġpromin ent
ĠMD A
Ġvirul ence
Ġpro phyl
IN T
oz o
ĠTechn ologies
Ġel igible
Ġlink age
Ġinn ate
Ġcon formation
ĠM B
yp ical
Ġisol ate
Ġwor se
d L
Ġres olved
Ġblot ting
in vasive
he um
Ġr ule
gen erative
Ġmicro g
Ġexc itation
an es
ĠP rim
Ġform er
A ccording
Ġmark et
Ġsymptom atic
acer b
Ġisoform s
Ġmell itus
R D
lu tion
Ġover come
Ġre inf
Ġeffect or
Ġprot on
Ġscenari o
ig are
Ġlab eling
Ġschem e
u its
ti zed
g rade
u ity
Ġdisrup tion
Ġgrad ually
ĠT A
Ġdisc ontin
ec tions
ĠM y
Ġfem oral
H L
Ġsecre ted
Ġsens ors
Ġcandid ates
Ġillustr ated
F our
Ġex er
Ġinf erior
Ġul cer
ulti ple
Ġphosphor ylated
g reen
an tic
Ġcentrifug ation
Ġhoriz ontal
ad emic
ĠP articipants
Ġdesc rip
Ġsitu ations
ĠÃ ħ
MAT ERIAL
ed ic
ve y
Ġdisp ers
Ġp ix
Ġst ret
ĠP ark
Ġj o
Ġexce ed
Ġepis odes
m osp
Ġunder t
Ġremod eling
Ġc asc
Ġre adily
Ġoptim ized
Ġreh abilitation
re tion
ve olar
Ġchlor ide
urg ical
Ġsqu are
Ġw idespread
Ġsub jective
Ġemerg ed
Ġcentrifug ed
Ġdop amine
plic ate
chem ical
resent ative
Ġh r
Ġdist ances
n s
Ġcan n
Ġhom ogen
uk ary
Ġ ult
Ġpot assium
12 5
Ġp ore
as ion
Ġcolon ies
p op
Ġanat omical
ol ding
Ġal igned
ĠL D
Ġfast ing
Ġmotif s
Ġlap a
m eth
Ġde hydrogen
Ġselec t
id ase
Ġr RNA
Ġinter s
Ġsub type
Ġventi lation
f erence
ĠH T
Ġmod es
Ġsome times
Ġoff spring
ĠA C
r or
otyp ing
m es
Ġa rom
ati ble
em at
Ġinduc ing
Ġfavor able
Ġex acerb
Ġequ ilibrium
Ġbond s
Ġin jections
Ġman ual
Ġlifest yle
Ġpro ven
Ġoptim ization
Ġvacc ines
Ġbelie ved
Ġst om
Ġcont amination
MS Cs
Ġsubst ances
ys tic
Ġint est
Ġab err
Ġfac ial
amin o
Ġsurve ys
b enz
he ne
ĠH ER
E X
Ġcon ce
ill i
Ġrare ly
Ġclon ed
qu es
Ġadj uvant
ĠI tal
ĠRNA s
Ġreflec ts
N G
Ġo c
Ġwas te
tiv iral
ym er
Ã ¡
Ġan omal
Ġh ous
ĠG M
Ġcontin ue
Ġglut amate
Ġprelim inary
Ġb on
ĠT a
Ġsti ff
ant a
ĠH O
Ġaccept able
ar p
Ġre tained
Ġam mon
Ġprot ect
Ġpla que
Ġit em
Ġcons ervation
Ġreve als
exp ressing
con jug
Ġenc oded
Ġide a
r id
Ġh ttp
S ome
Ġg rap
Ġret ro
ling s
Ġmicrobi ota
Ġaden ocarcinoma
Ġpert urb
Ġw oman
ĠH DL
Ġap ical
Ġtrans duction
ĠH uman
Ġparas ites
or th
ĠE m
k ing
Ġin activation
Ġinser ted
Ġfeas ible
Ġ iod
Ġa id
ĠIn f
Ġcomplement ary
ti zation
al ia
ĠN R
Ġassum ption
Ġbelie ve
G D
Ġp s
Ġind ust
Ġconc lusions
Ġarchit ecture
1 50
Ġ( -
em ographic
Cl inical
Ġbr id
Ġa z
st anding
ie f
Ġex ogenous
Ġt ib
Ġadv ances
ĠĠĠĠĠĠĠĠ ĠĠĠĠĠĠĠĠ
Ġreag ent
re le
ys ical
Ġk et
ĠW HO
ex pression
PA GE
Ġdisc overed
urrent ly
ĠA M
S m
ard s
ĠRec ently
ipp ed
Ġv ital
Ġoff ers
Ġpotenti als
Ġknock out
Ġamyl oid
V I
ag ulation
Ġvisual ized
Ġpur poses
xim ately
Ġprogram me
Ġsulf ate
Ġmon ol
Ġsmok ers
e v
en chymal
Ġre v
ĠH IF
ĠN A
Ġvi able
Ġfil tered
Ġfores t
c oding
Ġb ile
ant um
ĠN eu
Ġro ugh
6 00
oc omp
ĠG ABA
Ġrest ing
be ing
il ic
ĠE p
Ġload ed
, âĢĿ
ĠO T
Ġacc ession
fact or
Ġexten sively
Ġimm obil
Ġre per
Ġcon j
ĠA u
et in
Ġs omatic
Ġst ent
ot echn
ich ia
Ġadap ted
Ġincorpor ated
en h
Ġm apped
Ġex cessive
ĠM ay
Ġch ol
ĠA RT
Ġph yt
Ġro w
ros ophila
Ġro ute
ke let
Ġincorpor ation
D G
ic ture
ĠT ype
Ġat mosp
Ġimp acts
ĠG I
Ġatt achment
re me
om eric
ys es
ĠE T
Ġf arm
ĠE EG
Ġdiff use
Ġplasm ids
Ġkin ases
Ġsynth ase
n on
Ġfor ces
Ġsus tain
Ġanc est
ge al
re ased
Ġpres um
Ġcarri ers
er ge
Ġe ukary
Ġembry o
k er
Ġc ir
Ġl nc
Ġcomp rom
Ġexp on
Ġk Da
âĢĻ ,
Ġdiscrim ination
id i
Ġmedi ate
Ġcop per
Ġopportun ity
H I
f il
Ġdri ed
Ġseed s
Ġm ask
ĠD et
ros p
ĠG R
Ġeth yl
Ġcompl iance
Ġh arm
Ġappro val
Ġhospital ization
Ġcriter ion
b rain
i ples
st ep
Ġcom plicated
Ġsol ub
Ġaccoun ted
Ġg ives
ĠE qu
ĠAn ti
Ġpil ot
os ci
respon se
acet yl
Ġrelax ation
R eg
Ġto oth
Ġqu ar
Ġcirc ulation
Ġconsider ably
p e
th rough
ad her
Ġtri ple
lik ely
Ġc oc
asc ul
Ġbran ch
Ġexpand ed
Ġgir ls
Ġ $
ĠF l
ĠL A
Ġphosph atase
ward s
Ġspec imen
Ġj unction
Ġcaro tid
Ġcongen ital
pl atin
O F
Ġ9 7
Ġh ierarch
ĠL T
Ġmo tility
Ġtox in
n i
cop rotein
Ġbiofil m
Ġn a
Ġmon ocytes
Ġconcomit ant
o ols
Ġp up
ens in
Ġw et
Ġ7 8
Ġf rozen
ĠI S
ild ren
i able
ĠE V
Ġtub es
Ġst enosis
ub lic
Ġfil tr
Ġcatal y
d isc
Ġp ay
ock ing
Ġvide o
ĠM n
Ġdis app
Ġbound ary
ĠM M
bl ue
Ġmuc osal
Ġepig enetic
Ġnew born
umb ar
+ -
d o
Ġvolunte ers
Ġcon d
Ġbe ads
load ed
Ġor d
Ġelec t
Ġgly cer
Ġpromot ed
Ġemb edded
Ġconver ted
Ġsplic ing
Ġcap tured
Rec ent
Ġfeas ibility
Ġ7 1
ĠD MSO
Ġdist ress
C ons
oc ated
Ġinterpre ted
ĠB cl
trans ferase
Ġexperiment ally
g rad
un t
Ġprac tition
Ġempir ical
Ġf o
a ffec
ul sion
ĠmRNA s
Ġstimul ate
Ġasym ptomatic
aryn geal
Ġag ar
Ġhyper troph
Ġdisc rep
Ġmat ching
Ġsil encing
ĠStud ies
p re
as ic
Ġv entral
Ġrequire ment
Ġs por
Ġb all
os por
Ġst ated
ĠG A
iv ariate
Ġsuc rose
Ġplace ment
Ġa way
ĠC hem
ub ation
Ġnutri tion
ĠC G
av ail
Ġgreat est
g er
Ġcont ro
Ġw t
ĠT reg
Ġab lation
Ġ6 9
Ġhom ologous
rh yth
ĠIC U
C B
D e
Ġdraw n
Ġartif icial
Ġuncertain ty
Ġvis ion
Ġexhibit s
Ġfood s
Ġf inally
Ġinsu fficient
h am
ĠR R
4 50
Ġsh am
ĠF I
Ġtend ency
us ting
Ġmeth anol
Ġtra it
sc her
app a
Ġtak es
Ġtrigg er
ĠMAP K
Ġech ocardi
Ã ¶
ĠS tr
Ġus age
F L
as te
em ble
Ġest rogen
Ġdehydrogen ase
Ġdem and
Ġcal ibration
hydro x
Ġre activity
Ġwhe at
Ġgra y
Ġlung s
am pl
qu in
Ġen ables
âĢī 3
Ġpref eren
S ix
Ġselec tivity
Ġ199 0
Ġmalign ancy
Ġrevers ed
S pec
d rug
ĠT otal
Ġdifferenti ate
Ġplot ted
Ġen l
Ġsc ar
Ġfe el
obl ot
Ġconflic t
h uman
Ġcarri er
âĢ¯ =
Ġcorne al
aceu tical
Ġshif ts
ĠSw ed
om ere
Ġplastic ity
Ġcl one
Ġreg imens
Ġco ol
Ġconstruc tion
Ġcut off
ĠT H
Ġsc ored
ath ione
Ġinvestig ating
asm a
Ġproduc es
Ġg angl
Ġexpl o
Ġover weight
opl astic
lectr ic
Ġepidemi ological
t es
Ġdown regulated
cep ts
Ġsil ic
ĠDep artment
Ġdial ysis
Ġt ension
Ġh app
ĠD ue
ĠD rosophila
Ġun likely
T rans
Ġconf ocal
ĠS yn
Ġcorrel ates
Ġbre eding
Ġprepar ations
Ġc odon
Ġpre treatment
Ġle pt
Ġdiagnos es
omon as
ĠH g
Âł g
ari able
ult ural
Ġimmun ore
AC S
Ġlimit ing
Ġreinf or
T NF
ĠS N
Ġaver aged
er ating
Ġl uciferase
ears on
Ġj our
Ġastroc ytes
Ġbelie f
Ġkine tic
Ġhemorrh age
Ġh ind
Ġstr ict
Ġ7 6
Ġproper ty
Ġe ating
M et
er ves
Ġind eed
Ġun f
Ġun changed
adher in
Ġb ip
am ous
ĠA V
Ġinf er
yc line
Ġcomb ining
Ġsym b
Ġre ar
Ġcomp ression
Ġ7 3
Ġguid ance
he a
ĠD is
Ġapp ly
aff in
Ġb urn
Ġh ar
ot ed
ĠW orld
the tic
Ġdend ritic
id in
oc on
ĠM CF
ĠR el
Ġcoun ted
Ġdispl acement
Ġchromos omal
Ġab use
Ġimpro ves
inf ection
IN G
Ġbuil ding
Ġexclus ively
og lyc
ĠN T
Ġtr unc
ie tic
Ġfl at
antit ative
Ġegg s
l ined
Ġd ent
Ġmod ule
scher ichia
Ġin g
Ġse pt
Ġmon o
Ġdos age
ĠMedic ine
ĠM C
ad ren
Ġdri ving
ĠEng lish
1 10
Ġminim ize
Ġswit ch
Ġpres cribed
Ġorgan ism
Ġb ud
ver si
Ġmen ing
ĠM any
Ġhe par
ĠN I
Ġdim er
Ġp unc
ĠM an
Ġsug ar
Ġec ological
Ġintest ine
Ġsc oring
Ġexam inations
Ġdep artment
Ġneed le
Ġact ually
Ġundert aken
Ġser a
Ġcop ies
Ġhydroly sis
Ġconfig uration
ro us
Ġcoun s
ĠUn der
Ġpap ers
Ġbelong ing
al am
ak er
ophil ic
Ġspe ech
M any
r us
Ġp ump
om ing
Ġob jec
fam ily
en al
ĠF T
ĠG L
Ġinter leukin
Ġinst ability
ĠAustr alia
I f
S L
T wenty
ĠC E
ĠG H
environ ment
Ġr ace
ĠE l
Ġ7 4
P O
Ġob jects
Âłm M
p y
Ġp yl
Ġreduc tions
Ġcoord ination
Ġcont acts
ĠN E
ĠOr gan
id ering
Ġout patient
Ġfac ility
Ġsci ence
Ġrecip ients
ĠC RP
ĠM V
Ġexam ining
Ġequ ally
Q u
b es
ĠS an
ĠM HC
Ġpl as
Ġed ema
i asis
Ġre tic
ist rib
p henyl
in der
Ġh old
et ween
if ier
Ġ8 4
Ġrem ission
ustr y
ĠMS Cs
Ġprinc iples
f unctional
Ġdis per
Ġqu antum
Se q
N M
c yc
n ia
ar um
Ġform ulation
conjug ated
Ġconsist ency
Ġpri vate
Ġattit udes
he imer
Ġac ademic
al a
im ents
ĠM ann
est ing
Ġstudy ing
Ġend oscopic
effec tive
T r
or a
unc tions
Ġhem oglobin
G L
Ġcreat inine
Ġst ream
ĠH BV
Ġint en
Ġcontrib utions
Ġbir ds
Ġepilep sy
Ġg ram
Ġex plicit
Ġr up
Ġactiv ating
et us
Ġtrig lycer
Ġin hal
ĠA SD
Ġsens ing
Ġvag inal
Ġg al
Ġde generation
Ġseed ed
Ġlact ate
o vi
um ina
Ġl aw
Ġdi vision
ple x
Ġ8 8
Ġdiag ram
kelet on
Ġst ation
Ġde v
ug e
Ġolig onucle
ifferen ti
Ġcir rh
Ġn ight
Ġcomple tion
mi R
acr yl
âĢī >
Ġmetabol ite
he ad
ĠS PSS
Ġdo ub
Ġc ust
rel ation
opo ietic
Ġf illed
Ġb order
olog ist
ĠJ une
r ant
Ġco ated
Ġd ro
ĠM c
C ol
Ġsp ot
om eth
Ġsub s
Ġphosph olip
ĠInde x
Ġa ort
Ġst ock
CT s
ven tive
Ġenh ancing
In ter
Ġ7 7
lyce mia
ĠP a
Ġhom ology
ens or
Ġext reme
Ġcompart ment
Ġm TOR
Ġl ysis
Ġprincip le
y b
re ed
ug in
Ġ9 2
Ġlys ates
obacter ia
Ġelim ination
ĠCan ada
Comp ared
ograph ical
Ġquantit y
Ġmicro tub
Ġpur ification
Ġpropor tions
Ġreach ing
ĠNS CLC
ĠSpec ifically
Ġcam era
ĠIm portantly
Ġp all
ur on
âĢī g
Ġrun ning
Ġster oid
z heimer
10 5
Ġocc lusion
r ical
Ġthreshold s
l it
le ft
Ġdef ense
Ġ199 4
Ġgo als
Ġpan els
. ).
Ġequ ations
Ġdetermin ants
al c
ap er
ĠO D
Ġmicro organ
Ġobserv ational
Ad ditionally
Ġubiqu it
Ġb ic
ĠI M
Ġor b
Ġmod ern
Ġsup erv
Ġser ved
H igh
ĠA UC
ri le
par tic
Ġequ ip
Ġsl ope
ĠJapan ese
Ġconstrain ts
Ġ7 9
Ġ8 3
Ġsec ret
Ġparticip ating
Ġg all
ap op
ĠL td
Ġcap illary
Ġcompeti tion
Ġsurviv ors
omes tic
of l
Ġobstruc tion
Ġwavel ength
od al
iz umab
ch a
we ighted
Ġdiss em
IT C
Ġultim ately
ĠS oci
Ġindic ation
ĠAn imal
Ġtax a
Ġm t
âĢĿ .
Ġeth ical
S EM
c r
ĠS B
ograph s
Ġred ox
Ġfit ted
Ġpharmac okine
Im mun
Ġregist ered
urren ts
Ġadv ance
N a
ra ight
ĠB ut
Ġun ivers
Ġ8 2
Ġmicro M
ĠCon sequently
Ġapplic able
Ġdiges tion
t ent
Ġ8 7
Ġpower ful
âĢ ¦
ten sive
Ġsl ides
Ġmach ine
ix ed
ĠZ e
urg ery
Ġmanifest ations
ĠE ven
usc ular
Ġoste op
Ġfung i
Ġ8 6
Ġvalid ate
wh at
Ġmarg in
B r
Ġin ver
Ġv aries
ĠR F
Ġdist ant
Ġdiast olic
Ġco ating
Ġfib rin
at ers
a ven
Ġdet erior
Ġcaus al
ysi ology
sh aped
Ġautom ated
Ġinc ons
Ġsim ply
Ġsp ent
av irus
wh ich
affec ted
ac illus
Ġl if
ĠS im
ang er
range ment
P articipants
ĠL a
Ġclos ure
ĠA sian
Ġimmun ofluorescence
og raft
ĠR V
Ġfocus ing
Ġadap t
Ġmicrogl ia
Ġmat ch
et erm
Ġde x
ad ic
Ġper man
Ġj ob
Ġdep ri
Ġbiop sies
Ġimmunohist ochemistry
d ensity
Ġc ues
ter min
Ġcontr action
âĢīÎ¼ g
Ġlob e
w hile
Ġinc ident
ĠR ed
Ġar g
Ġdri ve
Ġb inary
ĠS he
ĠG ram
Ġsubset s
Ġelucid ate
un ately
Ġv ic
Ġel se
Ġpercent ages
ĠBay es
Ġreason able
t op
os es
Ġtranspor ter
Ġis ot
ade qu
Ġeti ology
Ġmom ent
a ult
Ġfour th
b ec
u ation
an ic
as ure
Ġext end
Ġa th
ĠE scherichia
Ġ** *
ĠRep resentative
Ġpow der
Ġoverl apping
Ġreturn ed
Ġdesi red
Ġd uc
ur ations
Ġoff ered
Ġstiff ness
Ġf ear
ĠS amples
ĠAn d
Ġl engths
Ġpromot ers
On ly
ĠHP LC
Ġprot ected
Ġd ich
Ġlat ency
Ġsed iment
B G
ĠP PAR
Ġâĸ ¶
Ġab ol
Ġdevi ations
Ġter ti
c ious
ĠS U
Ex per
mat ched
ra ble
op ol
ĠL ik
Ġcyc lic
Ġfer til
ĠCK D
Ġst raight
ĠM arch
ĠHe La
Ġincom plete
L V
Q R
Ġwe ighted
ili ar
on ical
ĠI ll
Ġk b
l ies
n et
Ġd ip
ren e
Ġel astic
ĠA kt
as ome
Ġpres erved
ucle ar
Ġpat ch
Ġcirc uit
squ are
f our
Ġm olar
Ġsur prising
amet h
ĠComp ared
Ã ¼
ul i
abol ic
Ġstratif ied
D E
Ġbe h
Ġanaly zing
Ġpart ner
Ġflex ible
Ġc igare
Ġper haps
Ġ8 1
Ġslic es
l am
Ġd ensities
Âł 7
ia z
Ġunc om
Ġin verse
an i
ĠD AP
Ġster ile
Ġcorrect ly
S F
S imilar
f lu
Ġt ended
Ġc odes
âĢī cm
Ġscatter ing
Ġnucle otides
Ġregul ators
Ġbuil t
Ġ ),
Ġun us
c a
Ġimpl ants
s ense
Ġscenari os
M od
p in
Ġind ustry
Ġpart ly
T I
Ġg iving
ĠM yc
ĠH u
Ġob st
Ġselec tively
Ġl umbar
Ġrem ov
Ġhem isp
Ġoc ular
res olution
AT A
trans f
Ġantic ip
Ġdiss ection
Ġr heum
ox ygen
Ġgener ating
Ġmedi ators
ĠAmeric a
ĠED TA
Ġopportun ities
ri ed
Ġ9 1
ĠEx pression
f ord
ell ite
ous tic
Ġsuff ering
Ġo ocytes
Ġan ten
Ġdi e
Ġ8 9
Ġmac ro
usp ended
v a
Ġgene tically
ici ency
Ġmamm als
Ġdepos ited
Ġin her
Ġw arm
Ġan ne
ĠM at
ĠE CM
Ġenh ances
29 3
Ġshe ll
Ġc urrents
it ney
pro cess
Ġinn ov
Ġatheroscler osis
ear ing
med ian
Ġgest ational
Ġprem ature
op y
Ġac ting
Ġwe b
Ġcyt ochrome
ĠRe view
Ġconn ection
Ġcompr ising
ĠEth ics
Ġabsorb ance
D ESIGN
Ġfil es
Ġsequ ential
v iral
Ġt au
Ġst atic
ĠC ox
Ġmod er
Ġc ation
Ġp ac
Ġb rom
Ġb orn
ul ph
lec tro
Ġnumer ical
w ave
aus al
Ġadj usting
ĠA N
ha i
us ing
im ental
Ġconform ational
Ġdest ruc
Ġdramatic ally
b a
y o
as hed
00 3
Ġch ance
ĠF R
Ġtr ache
AC E
Ġmm Hg
Ġdiet s
Ġrecording s
om orph
Ġinoc ulated
s up
onucle ar
och rom
otechn ology
: :
u ate
Ġby pass
Ġes ter
Ġglut athione
Ġnit ric
m ouse
val ence
10 6
Ġcis platin
Ġuter ine
D F
am ents
ĠC ent
Ġgest ation
Ġperoxid ase
E Cs
T otal
Ġs we
Ġmin d
minist ration
D U
Ġregard ed
G s
Ġacid ic
pr il
Ġab str
Ġam in
yn aptic
ĠIm age
ĠD r
vid ually
fig ure
B MI
ĠC pG
ĠAl zheimer
Ġaff ord
S tr
ĠP B
Âł weeks
oph yl
O ther
Ġv ascul
ĠM Y
Ġdec ay
tis ol
Ġcontinuous ly
reg ular
Ġaggreg ates
Ġshor ten
Ġsat uration
d ic
Ġm ast
um m
Ġweek ly
par amet
ĠR N
AP DH
ĠCl ass
Ġhorm ones
t ri
us ive
ol ve
k le
Ġbo ys
ĠCV D
u ro
Ġd omestic
end it
Ġfunction ally
opath ic
G P
ĠS ection
Ġall ergic
Ġover view
Ġret ina
Ġseiz ures
Ġstud ent
Ġmod est
Ġsecond s
Ġelectr ic
Ġeng agement
s ed
ĠH is
of ib
ul ator
Ġch i
Ġhighl ights
Ġlapa roscopic
Ġfiltr ation
g lyc
Ġt rop
Ġst rand
Ġv an
Ġco ur
Ġ9 3
Ġcri tically
Ġinstr uments
Ġsuppress or
Ġa qu
Ġs enes
di al
ĠE A
ĠG ST
Ġimp ed
Ġsym p
Ġgeneral ized
Ġcult ural
im et
ĠT reatment
ĠE M
ĠQ TL
Ġpublic ations
ii i
Ġinterfer on
di x
dri ven
Ġint ram
ĠL H
obl asts
Ġstreng then
T hermo
Ġp pm
Ġm er
st able
ast ing
Ġqu in
Ġsp ik
Ġspl it
Ã ³
Ġin herent
Ġcom e
Ġimpl ies
Ġgovern ment
Ġscaffold s
ol a
ĠT C
ĠB MP
ill er
Ġtr ace
Ġver ify
Ġbu ff
Ġsperm at
Ġsocio economic
he rence
MD A
s uch
at t
oc he
Ġmo ving
Ġz eb
Ġcirc ular
entric ular
Ġstrom al
Ġq PCR
Ġ rain
ĠT S
ĠW il
ak ers
Ġgl ands
Ġloc ally
Ġcap ability
Ġsch ools
ĠO c
Ġphot o
Ġcompl ain
Ġconcentr ated
Ġdirec tions
oc ular
ĠD isease
Ġ10 5
ogen es
Ġgo at
in ted
al low
di ab
Ġcons erv
Ġ6 00
ass ay
aro se
Ġmar ine
Ġinteract ing
Ġsearc hed
op ausal
Ġper itoneal
Ġpel vic
Anal ysis
Ġhepar in
ĠB ar
lec tion
Ġop tic
Ġhel d
Ġsw elling
T reatment
a ut
Ġemerg ence
Ġopi oid
ĠÎ »
Ġmut agen
Ġint ensities
Ġar ise
ines cence
Ġalter ation
ĠSci ence
Ġacces sible
C K
H ist
Ġser ine
Ġcommun ic
Ġnat urally
opro t
Ġsqu amous
Ġdro ple
Ġd ox
Ġd uct
Ġ( ).
ph one
Ġcan al
and em
Ġspec ified
Ġdep icted
Ġindi vidually
Ġrepe ats
Ġsuic ide
Ġpyl ori
D ifferen
E GFR
Ġass ume
Ġexc ision
Ġcat tle
Ġattemp ts
Ã Ń
in ely
Ġm us
Ġpro spec
Ġch arged
iz er
ĠO b
Ġimmun oglob
Ġo s
ĠE q
Ġdec ade
Ġthromb osis
Ġelic ited
E ach
g amma
Ġin adequ
ew ise
ok ines
r uct
v irus
om ial
Ġn ame
Ġno vo
ĠV i
Ġtra vel
Ġconnec tions
t et
Ġline ages
Ġhist or
Ġepid ermal
l ight
ul monary
control led
Ġthor acic
Ġcategor ized
s ur
ol ate
os an
Ġ12 5
ÂłÎ¼ g
Ġal veolar
Ġpres cription
Ġopen ing
Ġengine ering
Ĩ Ĵ
ce ed
Ġmicroscop ic
raf ish
Ġrecogn ize
ĠSub sequently
ĠMod el
ugin osa
m atic
Ġ ri
Ġexp endit
Ġrec all
Ġmat hematic
Ġax ial
in i
ĠD L
Ġpos ts
Ġpolic ies
ĠAss ociation
ti tis
Ġcon cepts
EN T
Ġequip ment
Ġan ch
Ġb is
form ing
Ġlife time
Ġker atin
Ġp assive
Ġd u
ĠB AL
Ġindust rial
Ġv ar
ĠH L
Ġper ceptions
ĠG W
Ġinter acts
Ġhepat ocytes
Ġhomogene ous
Ġm Ab
id er
id ae
ĠP EG
Ġman aged
Ġev oked
ĠBi osci
Ġcon sequently
Ġfl ies
P M
Ġg els
Ġtrigg ered
Ġfron t
Ġdimin ished
S ur
Ġt ro
ol uble
ati le
Ġarrow s
Ġwithdraw al
di agn
ion al
Ġretrospec tively
Ġtrack ing
Ġparad igm
ĠSoci ety
Ã ¯
ĠO s
Ġcent re
Ġ( âĪĴ
Ġsign ature
Ġseg reg
Ġturn over
Ġcovari ates
M ore
i ers
o ic
Ġt or
Ġp icture
ĠA ug
Ġprec ipit
Ġte aching
ĠFran ce
Ġs un
Ġn urse
ol us
ur k
Ġop in
Ġlymph ocyte
A N
ox in
ne a
Ġes c
h our
Ġser ot
phosph or
Ġtranscript ome
Ġannot ation
ĠE d
D T
c ons
ĠT ri
Ġcor ro
Ġnormal ization
Ġshe ar
Ġmes enchymal
Ġb rown
Ġem pt
G roup
ag o
per itoneal
Ġman di
co ated
Ġnan oc
fort unately
Ġhabit at
Ġhelp ful
Ġangi ography
Wh itney
m aking
Ġb ring
od erm
Ġactiv ates
Ġsupplement ary
Ġethn ic
ĠKore a
l ocal
ĠT e
Ġph age
ept ember
Ġbe aring
Ġen velop
Ġmod ulated
tim al
Ġdec om
Ġser ial
Ġtumor igen
Ġexc retion
Ġcr ude
Ġmix tures
ĠCO X
Ġmyel oid
ĠNot ably
f requency
o ir
Ġb ig
Ġh osts
Ġrespon ded
Ġinput s
Ġclar ify
in form
Ġl am
Ġg ait
tr action
Ġan emia
il arities
to ber
Un der
Ġtransm embrane
M W
Ġst ain
Ġclin ics
Ġmicro environment
Ġdescrib ing
Ġassay ed
Ġbu ild
Ġoper ative
Ġsevere ly
Ġcryst als
Ġannot ated
Ġterti ary
N E
Ġin active
Ġexpos ures
Ġfl ank
Ġ199 3
osyn thetic
Ġf etus
13 0
Ġhom ozygous
athe tic
g ov
Ġc AMP
Ġimmun ization
ocy an
a ugh
ĠG TP
Ġmut ated
obacter ium
ar se
Ġh all
ĠG reen
ĠHE K
t em
Ġf if
Ġb in
Ġref er
epti des
Ġreflec ting
empor al
MATERIAL S
alam us
H Cl
ĠT T
ap es
Ġun related
Ġthor ough
d l
ust ered
Ġradi al
S ch
Ġs on
id ium
un k
Ġrec over
mon ella
ĠJ uly
Ġpor tal
Ġoccup ational
ĠD O
ron tal
Ġcut aneous
Ġaer uginosa
Ġcon tig
one y
ĠV ari
Ġpolar ization
ro tic
ĠT est
ati bility
Ġat rophy
11 6
Ġaddi tive
ĠP an
Ġrepe ti
Ġevent ually
Ġneutroph il
apop totic
O ver
p tic
Ġs and
Ġd ot
ĠA pril
Ġgroup ed
Ġar ms
ex ts
arm ac
Ġpsych os
Ġcolon ization
Ġcarbohydr ate
n is
Ġsub mitted
Ġar b
reg n
H E
O b
s ite
Ġg yr
pl er
Ġse a
Ġplate lets
Ġconfirm ing
ĠSci ences
Ġrout inely
os itive
ur able
duc t
Ġview s
Ġsil ica
ycl onal
b and
in ase
re active
os ing
Ġwas hing
ĠB A
Ġco inc
Ġy our
Ġsome what
Ġge ographic
ti ally
Ġwor th
Ġwar ran
Ġtryp sin
oplasm ic
Ġdiver gence
Ġelong ation
Ġm ism
Ġimmun oblot
Ġradi us
Ġheter ozygous
ĠHb A
Ġn om
oc ellular
ĠP e
Ġus ual
ĠF BS
Ġag ric
Ġconsum ed
fe eding
Ġass ist
Ġtrans pl
Ġm ir
ĠT RP
Ġtest osterone
Ġachie ving
Ġp ort
Ġmod alities
Ġmicroorgan isms
Ġh oc
ĠF GF
i ence
Ġpost natal
Ġcortic oster
ract ory
Ġm ood
Ġex ec
ill a
Ġsystematic ally
Ġprecurs ors
Ġcaregi vers
ag g
ric es
ffici ently
S ignificant
h yper
l ated
ul tiv
ĠL ife
Ġmet als
Ġwell s
Ġprofil ing
Ġdefici ent
Ġlibr aries
G iven
Ġint ense
Ġmicro gram
Ġlab el
ste in
Ġchemical s
Ġnam ed
ot ensin
00 4
Ġult ra
Ġh ot
ell es
ore r
âĢī .
Ġvisual ization
otox in
Ġmalign ancies
d el
ax el
Ġdiss ociation
Ġbran ches
Ġprogen itor
H IV
ĠP U
Ġat ypical
ĠR B
M an
y a
as eline
om otor
Âł nm
Ġpop ular
Ġ18 0
men tioned
F irst
ash ion
Ġcompet ing
Ġcust om
c adherin
h ospital
Ġm a
Ġre ward
ĠI T
tr ac
Ġtri plicate
Ġq RT
ĠNot ch
oc ortic
Âł cm
Ġinstit ution
Ġmim ic
Ġcirrh osis
ag ul
Ġper for
Ġend s
Ġexc lude
roc yte
Rec ently
ĠR am
ĠE B
ion ic
Ġglycer ol
Ġth ink
Ġund ere
Ġar rays
oph ore
otox icity
ysacchar ide
p tions
Ġpre ventive
ĠB MD
iti g
Ġdisc rete
Ġinflu encing
.. ..
Ġana esthe
Âł ÃĹ
Ġaccum ulated
ipl inary
Ġhydrox yl
ĠLab oratory
M AP
âĢ ¢
ad ing
rain ed
Ġimmun oprec
Ġtransi tions
Ġconfound ing
Ġaort a
st andard
op hen
ch oline
Ġform at
Ġenc odes
Ġir regular
lectr on
h ab
ec es
ĠA sia
Ġch im
Ġ10 6
erg ies
Ġj us
d a
w an
Ġcasc ade
b odies
Ġb ab
Ġnon linear
Ġatt end
Ġang les
Ġfit ting
Ġdecl are
B ank
R ad
f at
Ġs hed
ĠG e
Fig s
Ġalk aline
Ġendomet rial
Ã¯ ve
] -
c he
ol er
ph thal
Ġdi arr
Ġgly coprotein
ul os
ĠO ut
Ġfl ap
Ġlo ok
sess ment
Ġp ent
Ġnecess arily
Ġdoc tors
i tic
Ġex ert
ĠI U
Ġoper ations
ĠÂµ l
Ġcarcin omas
Ġw aves
Ġf ashion
Ġes ophageal
Ġpred is
Ġconstit ute
M ethods
ut able
ag on
ĠFig ures
Ġprec ipitation
Ġantic ancer
Ġinstit utional
l og
ĠT CR
ect able
Ġindic ations
Ġins urance
13 3
Ġcy steine
Ġquick ly
ti tial
Ġtrans mitted
Ġpe er
erv oir
Ġdecl ined
Ġretrie ved
ati dyl
di vidual
Ġdiff raction
Ġam el
Ġantagon ists
ĠD Cs
Ġwork s
Ġblock ade
Ġlept in
Ġelse where
Ġins ect
CM V
Ġmamm ary
Ġflex ibility
Ġcytos olic
r d
Ġme at
Ġana er
oblast oma
Ġperman ent
k i
r as
v it
Ġm V
ĠE MT
ock et
Ġimmunos upp
Ġre jection
Ġre versible
Ġcy an
istrib ution
l act
ran k
Ġpractition ers
] ),
f ib
il ed
ĠK i
radi ol
ig her
ĠA G
Ġbe gan
ĠD P
Ġinvestig ators
ococc al
p atients
Ġ /
ra red
ad vant
âĢī 5
ail s
Ġoxid ase
Ġher b
Ġattr active
Ġgli oma
Ġmeaning ful
Ġadren al
it ors
ation ally
ran ded
Ġcl ustered
ER K
Ġillustr ate
ol ving
Ġsc aven
Ġev olved
Ġnan o
Ġmanip ulation
Ġreferr al
Ġpre term
Ġan tiviral
Ġf u
Ġbl ast
Ġstabil ization
Ġzeb rafish
Ġc ity
ĠS K
Ġstructure d
âĢī k
ual ity
CT ION
Ġge ometry
Ġpref erences
ĠRec ent
Ġderiv ative
D O
Ġb or
di rected
Ġhe ating
Ġsp ike
Ġdisper sion
Ġde form
Ġinter c
ru z
utri tion
r c
Ġc amp
Ġcomorbid ities
b ilities
f ive
as onal
Ġcor tisol
Ġam bi
An other
Ġadoles cent
Ġcareful ly
b one
h ydr
ĠC AD
qu ar
Ġr ules
ues tion
Ġagon ists
Ġenab led
Ġbeh ind
Ġres emb
Ġres uspended
ĠN ext
ass emb
âĢ¯ 0
Stud ies
ĠS te
ch ain
ĠZ h
Ġed ges
V al
t te
Ġpro vision
ĠS eptember
Ġneigh bor
Ġperc enti
2 000
Ġh ors
op eration
Ġpl anned
Ġocc asion
Ġhemat opoietic
le ge
ul ed
ĠB SA
Ġsub pop
ount ered
Ġfibr ill
ro id
Ġob taining
Ġactiv ator
Ġfl ag
Ġ199 2
on it
Ġy outh
ang le
Ġosteop or
Ġc ystic
al ateral
Ġb ases
c ar
n R
v in
ell um
Ġle uc
Ġax ons
Ġpress ures
Ġunus ual
ĠOc tober
ĠB on
Âł k
Ġdown regulation
Ġcheck ed
5 49
i ation
s ignificant
ic ts
Ġend ocrine
Ġenc ountered
Ġmagn ification
Ġinterf ere
Ġland sc
ĠP o
ĠP earson
Ġexper ts
CA G
Ġchem istry
Ġshe ep
Ġtend on
Ġaer obic
Ġdrain age
H uman
ot ine
ast om
ĠV L
ĠV er
Ġunc on
Ġdos ing
ĠÏ ĩ
Ġinstit utions
onym ous
Ġarom atic
an ish
ĠP t
itud es
Ġconjug ated
h aus
Ġd yst
os yl
im b
ĠA lex
Ġsc al
Ġhypertroph y
' ,
ti um
Ġimmun ost
Ġmat rices
y el
Ġres in
ĠH SP
ĠIn d
Ġbi os
Ġswit ching
Ġsaliv ary
apl an
c ardi
il le
Ġv ox
ĠS ign
ĠP b
ether lands
Ġcatal yst
tag ged
Ġf air
ĠL ou
Ġag arose
Ġdispl ays
Ġstom ach
R E
i ro
Ġd s
ang es
10 3
Ġrest ored
Ġhypot heses
or tion
Ġres ervoir
Ġmarg inal
Ġverte br
Ġremark able
âĢī s
Ġun affected
ex isting
Ġmob il
ĠSal monella
C r
p hen
it ch
Ġtrans cribed
Ġsim ilarities
yc es
ĠRh o
Ġsurge ons
E ffec
c am
Ġp g
ĠD I
ĠN Y
ĠL abor
az e
st atic
Ġpol yclonal
bl ack
Ġassemb led
p ot
id ing
ĠI ran
Ġde ad
Âł s
Ġphen yl
Ġag reed
Ġprom otion
ĠAn g
Ġsuper f
ĠDM EM
on ly
ed ical
Ġf ist
il ent
il st
ens ory
Ġlink s
Ġper ic
TS D
Ġequ ipped
ĠPK C
it ability
ffici ency
U TR
in in
Ġan is
Ġf ulf
ĠThe ir
Ġne oplasm
Ġhyp og
23 1
Ġutil izing
Ġlos ses
h ouse
Âł .
Ġacc ounts
ĠCons istent
Ġf used
op ia
Ġdis advant
Ġshould er
ETHO D
Ġgrap hene
k a
ĠM ac
Ġsp ots
ĠRNA i
Ġcontro versi
us ter
Ġn oc
ĠP CA
ost atic
ĠEn d
Ġpersist ence
Ġs acr
ĠP BM
ĠM or
ĠO F
Ġvac cin
lip id
L i
Ġw ors
ig er
Ġtraum atic
ĠG y
opl asty
Ġpancre as
N L
n it
p p
ĠR ab
form in
Ġconc urrent
Ġvis c
Ġconst ants
S econd
r is
u x
od il
Ġpolym ers
Ġpen icillin
Ġure a
ĠC yt
Ġdet ector
Ġlead ers
In terestingly
roph ot
Ġdel ta
Ġint ended
Ġar rhyth
Ġcyc lin
ĠAD HD
Ġlat ent
Ġaccoun ting
Ġundere stim
b ox
Ġmod ality
ass isted
Ġref ine
Ġinteg rin
Ġrating s
Ġf ri
Ġref ers
Ġsynerg istic
p ath
op pler
ĠG lu
Ġprolif erative
tif ied
tail ed
i agen
l if
Ġc ot
ĠS Y
az ine
Ġorig inally
Ġsuper oxide
Ġimpl anted
ig u
Ġslow er
Ġunivers al
Ġf iring
Ġno tion
velop ment
ĠSt ate
Ġenc aps
Ġreag ents
Ġmetric s
Ġf elt
Ġmod ules
ep tive
Ġhyp ers
Ġmin ute
Ġplay ed
Ġspecial ized
s he
Ġc os
Ġat omic
act ors
Ġrec tal
Ġx yl
Ġgr id
Ġsupernat ants
ĠH ist
ot o
kn ow
Ġnutri ents
Ġaden osine
Ġapparent ly
ĠBR CA
Ġcontroversi al
Ġ( +
ul s
ĠH a
ph rine
c ine
anti f
âĢīm L
itu itary
Ġintro duce
Ġd ense
ar val
Ġper m
ĠL ys
Ġar ri
Ġelectro ly
Ġantic o
Ġcompeti tive
h i
l a
Ġt ick
Ġhist ology
RO DU
opath ology
Ġhapl otype
j un
Ġg ained
Ġbi otin
Ġform ulations
Ġess entially
RA F
Ġcreat ing
ĠCX CL
al amic
Ġd rought
Ġinc ision
Ġjo ints
ĠC am
ĠU se
ological ly
Ġmeet ing
RODU CTION
B T
F ollowing
ï ¼
Ġb und
el ve
oc or
Ġpar al
ĠL S
Ġent ered
ĠHD AC
Ġansw er
ĠAug ust
R F
s ided
Ġn itr
im als
Ġac oustic
pl oid
ĠD E
Ġcontr ary
Ġcontr alateral
Ġmix ing
Ġcircum st
INT RODUCTION
Ġas cer
Ġwe bs
Ġco vers
Ġpot ency
Ġins ec
bl ast
Ġtop ic
Ġcat s
k y
Ġ( ~
ĠT aken
ĠS OD
ĠW est
Ġexper t
ethyl ene
Ġemph asis
Ġinadequ ate
Ġf asc
ol one
Ġch ose
ĠN etherlands
par atus
Ġbehaviour al
Ġreplic ate
Ġpsychos ocial
W s
Ġg aps
Ġap o
Ġpl acent
Ġsc ope
Ġsc rew
Ġhyp erg
disc iplinary
Ġf oci
Ġl ith
Ġim ag
duc ts
i val
as tern
um or
Ġbec oming
Ġelim inate
L F
r ating
pir atory
en n
Ġl ign
ĠBi osystems
Ġca ud
P ost
ĠT I
Ġcom mittee
ĠP seud
ub icin
ĠD at
Ġpar affin
oid es
respon sive
Ġfer mentation
Ġmoder ately
G lu
i ant
Ġm itig
Ġl ac
Ġl ag
form ance
ĠU l
10 4
Ġseg mentation
mod ified
L ife
ucle otide
Ġpseud o
Ġimmunohist ochemical
L E
her ic
ĠV A
âĢīÎ¼ M
ĠDi agn
Ġdepri vation
ĠLou is
g one
st ained
ĠS CI
Ġgener a
Ġfrag mentation
Ġintrac ranial
organ ic
Ġflav on
Ġbip olar
S up
o yl
um er
Ġac tively
Ġstress es
Ġslow ly
Ġtel omere
as one
ĠM N
echan ical
ft ware
Ġview ed
Ġcolumn s
Ġv ill
ĠA ML
ĠD el
ĠE CG
Ġun ivariate
Ġman ually
Ġpharm aceutical
Ġfibrobl ast
Ġaccom pl
Ġobjec tives
uestion nai
Ġse asonal
ĠR S
ĠR ES
An ti
Ġtop ical
Ġphysi ology
ĠAccording ly
P F
ot ub
Ġar gin
Ġdesign ated
Ġanth rop
ĠP ost
ĠR OC
tis m
Ġsu fficiently
Ġemo tion
till ed
Ġn itro
Ġpro inflammatory
ĠI BD
ĠPro gram
Ġunex pected
f all
vid ence
Ġfig ures
Ġads orb
ĠBayes ian
ar ts
Ġnod ules
ĠR I
Ġint ere
Ġpol lution
bl ind
ges tion
Ġinoc ulation
Ġchick en
Ġambi ent
O M
Ġcon v
Ġpre clinical
ĠB esides
ne ys
Ġconcept ual
Ġaberr ant
ĠS G
ri or
ĠG o
Ġun ilateral
Ġdam aged
dep ress
Ġpneumonia e
âĢī 4
enti sts
ian s
Ġphosph o
Ġfav our
ac ental
Ġevid enced
Ġcyc ling
Ġassum ptions
B E
ĠT K
qu ality
ox acin
in ance
ĠE F
Ġanti tumor
Ġmit otic
Ġte ac
Ġretrie val
Ġmotiv ation
Ġdescrip tive
Ġhierarch ical
el en
Ġrec ons
Ġsyn ovi
par ts
ĠIg E
âĢīÎ¼ m
Ġremov ing
ine a
Ġpre vents
ĠN L
Ġid i
pos ure
NT s
Ġventric le
Ġconserv ative
Ġsacr ific
W I
Ġw orm
Ġtrans p
Ġestablish ment
Ġvirt ual
Ġresc ue
) ),
h om
ĠA CT
Ġle thal
yl ate
Ġapp rec
Ġattemp ted
c entr
he p
ĠC CR
ĠC CL
Ġser ves
Ġintra operative
S i
ed iatric
ĠF c
ĠF ox
Ġen tit
Ġab ilities
Ġsp ind
Ġmedi ating
Ġtransf usion
rit on
Ġfluctu ations
Ġglomer ular
ĠLabor atories
m b
Ġre vision
her ical
ĠE G
Ġap paratus
Ġdr ink
Ġvulner able
C u
Ġh ol
res pec
quenc ing
omp ass
Ġwid er
Ġtet ra
gluc ose
Ġtraject ory
ĠC ruz
ĠL B
Ġunder gone
for ward
Ġseiz ure
N MR
Ġimmun o
SP R
Ġhypox ic
Ġrheum at
N ew
h and
he alth
ĠG al
Ġendot helium
Ġmes h
Ġrhyth m
M ETHOD
p ine
Ġf atal
Ġf ecal
id ation
ĠT N
ub lished
ort y
atin ib
Ġimmunoglob ulin
Ġrandom ised
ru vate
let es
Ġlat tice
ĠCol lege
p sych
ud den
Ġinf erred
ĠL ip
ress or
Ġdem ands
Ġless er
ode f
Ġcarb oxyl
Ġscler osis
Ġclos er
Ġpolymer ization
ĠTechn ology
Ġcompart ments
Ġsenes cence
Ġdiarr hea
N on
p olar
Ġcons cious
Ġend emic
Ġgl auc
Ġfac es
2 50
Ġan astom
os c
ĠO P
Ġion ic
ĠS erv
Ġrem ote
201 0
Ġow ing
Ġrabb its
Ġpathoph ysiology
am il
Ġch or
ĠE ast
pro ducing
aus sian
Ġcirc adian
Ġcoord inates
Ġleak age
ĠItal y
c ancer
ĠG SH
Ġun stable
Ġp ituitary
Ġmodel ed
Ġcoun ting
Ġfam iliar
Ġ199 1
Ġelectro chemical
Ġattrib utable
Ġaccel erated
Ġubiqu itin
Ġm outh
ag ic
pl astic
Ġcan onical
Ġsp ring
Ġbrain s
M V
ĠD es
Ġme al
Ġbre ed
Ġneurode generative
G al
M icro
d entif
Ġex ons
rap y
Ġindic ative
iel ding
Ġz ones
Ġenc ompass
Me ier
Ġpreferen tially
Ġma ize
s a
v ac
Ġsh aring
âĢī years
Ġver bal
Th irty
IF N
Ġindirect ly
D OC
ĠT RI
ĠH er
Ġcirc les
Ġdefic it
ĠB el
Ġneuro trans
Ġcommerc ially
ruc ture
Ġrup ture
Ġdestruc tion
O s
ĠG APDH
ron i
Ġantib acterial
upplement al
Ġsil ver
ĠOrgan ization
er ies
at uration
rom ycin
ĠM a
201 2
Ġsurge on
g lycer
Ġw ood
os us
if orn
Ġpar i
Ġmod ify
end er
ĠCon versely
ĠIg M
Ġfram es
Ġabol ished
Ġgyr us
ĠM ET
ion ine
ast atin
Ġcol itis
AT I
Ġtit ers
b ach
00 6
Ġcomp atible
ĠN et
Ġ10 4
ĠTh ird
Ġproduc tivity
Ġprophyl axis
A V
P rim
Ġon t
Ġelucid ated
Ġbreat hing
A bs
Ġw inter
or ic
ep it
rep resent
c irc
Ġ ile
Ġp yr
Ġv ast
ĠS n
Ġconduc tivity
Ġwall s
Ġbroad er
Ġmt DNA
st rap
ous ly
Ġevalu ations
ĠSt re
Ġhist opathological
Ġtraff icking
ĠM Hz
ĠF F
Ġpo orer
ult y
Ġoper ated
Ġepid emic
Com parison
Ġproxim ity
Ġtranspor ters
Ġpenet ration
Ġpresum ably
ro t
ren ch
Ġtraject ories
K K
W S
Ġc ysts
Ġap art
valu ation
Ġprof ound
Ġdiff ers
Ġmusc ular
Ġemb ol
aff e
Ġtoler ated
Ġw r
at osis
Ġl arval
th ree
Ġref ractory
Ġiniti ate
sc ore
Ġhead ache
Ġepid erm
Ġasymmet ric
l ayer
ur c
ĠC y
ater nal
Ġgl ial
fer roni
bor ne
exp ressed
Ġmoun ted
i res
ence phal
Ġar ising
Ġbehavi ours
Ġsuperf icial
m olecular
r f
Ġre ly
ĠC entral
par tum
Ġmechan istic
Ġregist ration
H V
is hes
Ġg rey
ĠF OX
ph ot
Ġun iversity
ĠTh at
Ġsti r
Ġpregn ancies
Ġrespir ation
Ġamel ior
Ġintere sts
c alled
Ġl ic
od ial
ĠC RI
ĠH B
Ġeth ics
Ġirradi ated
O A
as i
Ġanti depress
Ġman age
Ġneu rom
Ġoste ocl
ĠSur vey
Ġaneurys m
Ġbelief s
Ġs ector
Ġag o
vis iae
Ġkind s
ĠBiosci ences
F ive
V ari
Ġ Â
ĠD oppler
Ġtrans mit
Ġmethod ological
ann er
Ġtub ular
Ġoverexp ressed
Ġserot onin
Ġen cephal
Ġeukary otic
R el
b earing
z es
Ġfol ding
Ġref lex
Ġhyperten sive
Ġdistingu ished
Ġlabor atories
P ol
ce in
Ġch ron
ers onal
Ġdef ining
Ġperf ect
Ġinters titial
a ud
p es
om s
ĠT u
uc as
lec ted
Ġ201 9
ĠV P
âĪ ¼
sequ ent
Ġperson ality
Ġattenu ation
Ġrev ised
% -
y ph
Ġb if
Ġn erves
Ġpl ans
Ġpul ses
Ġdefin itive
i ph
m id
Ġ( âĢľ
Ġpres crib
Ġrepro duction
aphyl ococcus
Ġc od
Ġac uity
âĢī M
Ġseem ed
Ġsole ly
ĠPark inson
ro pl
Ġ1 10
Ġint ron
Ġmul tim
Ġterm ed
Ġalle vi
Ġpair wise
I CA
P a
s il
Ġn itrate
et heless
Ġinter medi
ĠO p
Ġread er
gl and
Ġsolub ility
Ġmathematic al
F U
n M
Ġl ib
ĠD D
Ġimmun odef
Ġorgan ized
c atal
ra ine
pro ximately
Ġmod ulating
ĠCD K
Ġdel ine
Ġoptim um
Ġkid neys
ĠEqu ation
Ġst aging
ĠC s
ess ation
ĠE BV
ĠAs sessment
ĠAl tern
ĠBi otechnology
tic ed
Ġspect rophot
EN TS
Ġimm ature
Ġsatis factory
Ġatmosp here
Ġempt y
s ulf
Ġr ated
Ġbound aries
Ġeosin ophil
ro genic
ab ine
em ale
Ġcl ade
ard ed
Ġstrong est
201 4
k et
termin us
P BS
le ted
Ġtrans verse
Ġrel ief
ĠCh i
range ments
Ġfacilit ates
Ġorth olog
ĠInstit utional
Ġconduct ance
Ġs ick
Ġrespon siveness
14 0
inc ome
Ġax onal
ibr ated
ĠÏ ĥ
k en
n d
rain ing
Ġimmun ological
Ġexpl oration
Ġepit ope
Ġpass age
Ġgraf ts
H s
Ġc ros
m ber
n es
tt ps
Ġs uture
Ġexpon ential
f ed
l ar
ĠP ub
ay ers
Ġsecret ory
c yt
Ġan t
ol ated
Ġpro ceed
ĠS anta
ĠM F
ĠIn iti
He alth
on y
Ġs udden
ir m
yc lic
Ġexpect ations
ĠS l
ĠD rug
ĠO ver
Ġdifferent ly
Ġtransl ated
y zed
ti se
ĠT ai
Ġfund ing
Ġgon ad
e es
ĠM ex
Ġcont exts
ĠG F
ĠSt andard
Ġfacilit ated
Ġalk al
Ġpl aus
Ġrel atives
ack ing
12 2
Ġol factory
Ġcogn ition
it ance
ĠP PI
Ġco agulation
Ġmon onuclear
ok yo
Ġadminist r
Ġcond ens
Ġc essation
at urated
Ġf ell
amin ergic
Ġcop ing
Ġillustr ates
Ġhapl otypes
Ġvacu um
os itol
Ġcon duction
Ġ1 30
op rop
ers on
Ġcho ose
Ġultr ason
e ties
Ġb ath
id entif
In f
10 7
ĠHealth care
tid ine
Ġcategor ical
uestionnai re
Ġar s
11 1
Ġoxid ized
ĠCX CR
Ser um
g rowth
Ġs ac
âĢ ĥ
Ġpath ologic
ove mber
dom ain
link ing
Ġs ph
es ium
201 3
Ġbur st
Ġps ori
l igible
ot om
Ġ1 01
ĠR E
Ġinj ured
ĠIndi an
Ġlum en
Ġenvelop e
Ġb iliary
st randed
Ġir re
Ġcere visiae
Ġsynd rom
Ġsmo ke
u v
Ġdisc l
Ġdesign s
Ġthem es
Ġcircumst ances
Q oL
Ġc yl
it a
ill ip
Ġimportant ly
Ġtransl ational
Ġpropag ation
ĠN M
10 9
ons et
Ġgener ations
Ġj unctions
Ġresid ent
Ġleuk ocyte
Ġcaps ule
Ġpreced ing
Ġl ists
Ġg ing
ĠM ic
ĠW here
Ġstimul ating
Ġanaer obic
Ġt andem
in ic
âĢ² ,
Ġprep are
Ġobstruc tive
X R
f luor
l as
Ġpro jection
Ġgro ss
Ġun less
Ġenc oun
Ġplay ers
Ġpari etal
- /-
G ene
Ġr ub
ĠD ay
Ġcollec t
AG E
201 1
yg d
Ġrun s
avail ability
ĉ ĉ
Ġsur fact
Ġlig ation
Ġs outhern
ag er
otherap eutic
raf ts
Ġethn icity
ameth asone
] :
Ġt ur
ol ation
az ol
pen dix
Ġju ven
e jun
ro d
Ġpl ated
Ġdec ided
br uary
Ġge ographical
Ġweak ness
Ġreproduc ibility
ĠIll umina
iforn ia
P r
Ġs arc
Ġ( Â±
op a
ĠP SA
Ġmic rom
ogen icity
Ġfil ament
AI M
Ġhousehold s
Ġenab ling
ophyl l
S im
Ġc ran
ĠC och
Ġrest oration
ĠSwed en
Ġprospec tively
b ra
n ec
th romb
Ġset up
As s
Ġhand ling
Ġnor thern
Ġnic otine
ĠExper iment
or ubicin
ĠT i
ĠT riton
Ġcounter parts
am er
ĠD T
cer al
Ġexc luding
Ġrecip ient
Ġdisturb ances
Ġbon ding
P ar
Ã £
Ġcell ulose
Ġprovid er
Ġprior ity
omer ase
ĠVal ues
b oth
Ġs omat
ĠT g
il ing
ĠP atient
Ġgen otyping
ĠB a
ox ic
Ġmo ist
Ġbiological ly
ĠBl ood
transf ected
A kt
Ġm assive
Ġfor ced
ox on
Ġhel ix
prot ective
Ġwarran ted
vi an
Ġ19 80
Ġcondition ed
Ġcent res
Ġcall s
Ġelim inated
Ġphenomen a
Ġmicrogram s
e ff
in ery
Ġd ens
Ġsh r
unc ture
Ġ14 0
otox ic
Ġsynap ses
Ġvolun t
Ġs tig
ĠM ar
Ġde al
ĠU p
ptom ycin
ĠBon ferroni
Ġeff lux
Ġreconstruc ted
Ġcover ing
o ud
he ther
Ġper in
Ġhe lic
Ġect opic
. (
Ġs ap
an ium
ut ation
up led
Ġinc id
Ġwe ar
Ġrep ression
Ġappro pri
ET T
Ġprob abilities
Ġg p
st ud
pl ace
cept ual
Ġdefin itions
Ġl en
Ġpro jects
ish man
Ġpla ques
N ot
re view
Ġan kle
im etric
un ting
Ġso ils
ogn itive
Ġreduc tase
lob al
Ġpoll en
Ġstre pt
q PCR
Ġs en
ĠI CD
ĠP TSD
ran ts
Ġk m
Ġorgan izations
Ġradi ographic
Ġfocus es
Ġoptim ize
Ġavoid ance
C re
N V
Ġhe arts
Ġinter rup
Ġcalc ulating
Ġepit opes
Ġdig ested
Ġattrib utes
Ġdisturb ance
ĠAustr alian
Ġath letes
G B
M o
T c
u an
Ġc ure
ĠM W
spec ies
Ġext inc
cept ors
Ġadd ressing
Ġmorph ine
ĠDAP I
Ġc ue
ĠT EM
Ġsh arp
Ġmod elling
Ġsymp athetic
Ġosteopor osis
Ġt es
Ġm ating
if ies
ĠR o
Ġ8 00
Ġradical s
ĠC x
Ġper p
ĠG E
Ġrespon sive
Ġdep ressed
Ġatten ding
ĠÂµ L
Ġhepat ocellular
Ġconj unction
Ġt one
Ġsh RNA
Ġpr one
Ġpol i
Ġhospital ized
ifferenti ated
G I
p red
t otal
Ã ħ
Ġconfir ms
PS C
Ġrib osomal
Ġautomatic ally
A CT
F if
Ġt RNA
in ator
re x
id ic
op enia
ĠS ignificant
Ġad ul
Ġpre natal
Ġen ergies
âĢĻ .
ĠQ uestionnaire
S U
T IF
Ġs ides
Ġd ocking
im us
Ġim aged
Ġco ast
Ġfil ters
Ġmedi ates
Ġcho ices
Ġcollabor ation
Ġechocardi ography
ear man
arg es
Ġhem odynamic
Ġfer tility
Ġo ct
ĠM TT
ad ap
Ġcol onic
Ġleuk ocytes
En d
Ġincons istent
Ġall ocation
Ġax on
Ġsw im
i ra
l ines
os arcoma
Ġex haus
th ood
Ġim bal
Ġdep olar
Ġbo ot
Ġsubstit utions
Ġflex ion
I K
S uch
ul tured
res sively
ardi a
yroid ism
Ġexpendit ure
quar tile
D es
Ġc ass
ĠM K
ĠF V
Ġsc aling
10 2
Ġlig ament
Ġentire ly
Ġperc utaneous
Ġlandsc ape
al b
ag it
Ġpres ervation
ail ed
Ġaddition ally
Ġfamil ial
Ġepis ode
Ġviol ence
respec tive
ĠG raph
Ġrel ate
Ġun like
av ig
14 5
Ġspontaneous ly
odyn am
ĠCons idering
Ġac know
Ġsy ring
Ġmet formin
Ġam ygd
Ġcol our
Ġfunctional ity
ĠIg A
Ġnm ol
ĠBl ack
Ġmonth ly
Ġreper fusion
E ight
w ing
Ġin patient
Ġst arch
ĠIn s
rect omy
eth ylation
Ġphot oc
201 5
ĠSL E
appro priate
Ġinten tion
r at
it osan
Ġst rip
ĠM aterials
Ġinteg ral
Ġfall s
Ġverte bral
d U
Ġ umb
Ġwas h
si x
ĠF rench
Ġper mit
Ġpol yc
Ġperiod ontal
rog ate
ĠAK T
Ġcontamin ated
ĠRN ase
ĠM IC
ĠF M
Âł +
Ġcl ock
Ġabs cess
Ġc oded
is ely
am yl
Ġor ally
00 7
Ġam p
ten sion
ĠK n
eng ue
Ġlymph oid
ST AT
ĠOn ce
ĠAlex a
D ue
Ġt ry
Ġo sm
Ġf ate
ĠG aussian
ĠO CT
Ġdef ault
Ġtr ich
Ġdegrad ed
Ġcompr ises
Ġcereb ellar
Ġoscill ations
on a
Ġpro ve
op ed
our se
Ġcor p
Ġend point
Ġprom pt
Ġestim ating
Ġtra de
Ġrecons tit
c ip
w a
ĠK ing
Ġquanti ties
Z n
h o
re di
ol gi
um inescence
ĠO H
Ġpur ity
oxyl in
Ġneurop ath
Ġstation ary
antif ication
w t
id azole
ĠH M
gu ided
Ġdeterior ation
ĠM ax
Ġins ects
CR P
Ġammon ium
k al
le g
uc k
ĠA E
ĠP RO
Ġestablish ing
Ġloop s
Ġhistor ical
1 12
ur ons
Ġbe g
ĠN D
ox if
otyp ed
rospec tive
Ġgr ass
ĠE GF
âĢī ml
ograph ics
ĠCh ar
Ġcle aved
Ġmedic ines
ĠCal ifornia
A UC
Ġt ric
Ġs aid
Ġp et
os idase
ĠP d
Ġne o
Ġrel ating
Ġdef ective
Ġlnc RNAs
Ġuncom mon
b ase
Ġd ots
ĠC ity
ab ase
Ġout lined
AT ION
Ġdele tions
Ġneurop sych
L s
ĠM ark
vi val
Ġsp herical
Ġprog ester
Ġwill ing
Ġsu ffer
Ġsumm er
ĠEr ror
through put
H B
T RA
Ġ ign
um ination
ag ers
Ġreg ime
ung al
Ġposition ed
artic ular
ĠPh ase
Ġanat omy
Ġfore ign
her ry
Ġreproduc ible
N B
Ġis o
ĠM ice
ĠF uture
ĠO x
Ġpost operatively
Ġgluc ocortic
ĠEn gland
pol y
Ã£ o
ro te
ĠT iO
ĠT okyo
Ġdis l
ĠN ovember
Ġlys ine
ÂłÎ¼ M
Ġprogester one
Ġv eter
ĠG BM
St atistical
Ġpass ed
ĠSo ftware
Ġtraff ic
Ġcann ab
ub in
Ġemploy ing
Ġangi otensin
Ġemission s
Ġspind le
Ġt ach
re asing
ra v
ag land
pro p
Ġstreng ths
ĠWith in
Ġsuff ered
UD Y
paramet ric
Ġdecom position
Ġrepeti tive
P EG
Ġin equ
ĠT X
ĠG T
ear t
pon ent
PS Cs
Ġeng age
Ġshif ted
Ġhab its
Ġbreat h
diab etic
Ġdu od
Ġimmunosupp ressive
G M
P ET
h n
p rim
oc in
ĠH I
ĠR MS
Âł Âµ
Ġcyc lo
Ġcontin ues
Ġenc ode
ĠCa ucas
Ġposition ing
ĠMS C
ĠEn ter
ĠFe bruary
Ġdisrup ted
id el
ell ig
Ġor ange
ĠW ang
Ġneu ros
Ġimmunore activity
illip ore
p rom
in teg
Ġdis tilled
Âł 8
Ġes ophag
Ġfr uits
Ġprob able
Ġphys ically
Ġprogram mes
Ġmass es
ÂłÎ¼ m
b ar
ĠCh IP
Ġcomplain ts
Ġmutagen esis
S yn
Ġar gu
Ġexhibit ing
Ġsymmet ry
Ġposi tivity
Ġt ap
Ġhelp s
Ġquantit atively
Ġemploy ment
Ġperson nel
Ġhum idity
imet ry
on omy
Ġc ame
Ġw ant
am a
Ġev apor
Ġseed lings
ĠHep G
i ative
ce ption
Ġsign atures
Ġaut ologous
ĠSt aphylococcus
Al so
Ġassum ing
Ġfilter ing
Ġadip ocytes
Ġimmobil ized
P ad
d h
Ġt ex
Ġs ulph
Ġb atter
Ġinv est
ĠK aplan
Ġmach inery
Ġord ered
Ġhemisp here
I QR
o ice
Ġt ac
in ting
Ġth ous
ĠC AP
ĠF C
ogen y
tit ude
Ġbacter i
Ġaccel er
Ġduplic ation
Ġsugges tive
L DL
ĠC ON
ĠL ow
iss ue
ov a
Ġpredic ts
ec l
y e
Ġp iv
Ġre tain
Ġl ane
ĠT ime
Ġse ptic
ari um
ace tic
Ġman if
rop y
Ġflu ids
Ġsulf ur
d omen
Ġin versely
or adi
ĠA ct
gan s
Ġuseful ness
Ġsoci ety
ĠSystem s
ĠCM V
ĠAMP K
Ġst anding
ĠM ad
Ġpl acental
ne xin
12 3
tif ication
ĠAr g
Ġtrigg ers
ĠTa q
Ġtrunc ated
N ext
O ut
S MA
i ol
it em
Ġ( âī¥
ter ious
Ġde formation
Ġph ant
ĠK Cl
Ġamong st
Ġcoord inated
Ġtib ial
Ġdiscrep ancy
T aken
p yr
or p
Ġconduc ting
educ ed
Ġtumorigen esis
Ġcon g
yt hem
ĠWe b
ann el
Ġrepresent ations
Ġcondition ing
Ġexten ding
Ġmultiv ariable
ĠT ables
ĠC AR
Ġsub m
ke ys
Ġnucle ic
Ġaccum ulate
Ġlys ed
Ġden otes
Ġmiss ed
Ġminim ally
wh ite
Ġce ment
im aging
ĠC and
ĠS CC
Ġcat ar
Ġpel let
Ġsplic e
enh anced
is tically
Ġconsider ations
Ġlum inal
C as
b urg
or ient
Ġanti f
Ġboot strap
m M
in hibit
Ġseek ing
Ġimmunodef iciency
ĠB T
ĠL ong
ĠU C
15 5
Ġradi ological
Ġexcit atory
Ġpix el
ro b
ra il
ĠM ass
ĠD en
Ġtherap eu
Ġneg ligible
Ġconfirm ation
Ġbo ard
+ ]
om yc
Ġl ute
Ġinter mit
ple ments
Ġtrans duc
Ġem p
Ġimmun otherapy
aps ed
Ġdoc tor
ĠBo ard
ent ary
Ġmed ull
Ġrespon ding
Ġphen olic
Ġconcern ed
Ġcoord inate
i ang
ig uous
ut ch
um ing
Ġle c
Ġdec omp
ob ser
Ġstatis tic
Ġcur v
Ġstimul ates
Ġsusp ended
Ġdistr ict
Ġpercenti le
Ġfibrill ation
ĠTai wan
Ġc itrate
or rect
ic ans
00 8
Ġco ugh
ĠCh ildren
Ġfil aments
Ġback bone
Ġcat ech
ĠPT EN
Ġben ch
omat ous
Ġor ders
Ġrecip roc
Bl ood
Ġclaim s
Ġopin ion
Ġargin ine
ĠA ff
ĠS ix
ran ged
ang hai
Ġmo iety
Ġvis ceral
ynam ic
Ġreflec tion
Ġcent ury
Ġparti tion
Ġpref rontal
Ġbal anced
Ġcytos keleton
Ġfabric ated
Ġmonol ayer
Ġcour ses
onit rile
p ur
Ġf ly
Ġ( )
Ġhe avi
ĠV O
ĠJ NK
Ġsched ule
agit tal
e le
is ual
Ġb us
Ġsurvi ve
orpor ation
Ġaccept ance
Ġauto anti
Ġelic it
Ġconsult ation
Ġarb itr
on om
Ġw aters
ĠA cc
ĠF ive
Ġhist ologic
Ġpix els
Ġanomal ies
Ġadul thood
M K
Ġexp ensive
AC h
Ġhyper plasia
Ġsat urated
ĠWh ite
ETT ING
Ġde br
Ġper oxide
Ġrel ies
Ġar gue
Ġconf lu
ause a
ish ing
Ġbacter ium
Ġchalleng ed
p ation
ter isk
il es
Ġlab elled
Ġincorpor ating
Co A
part ate
Ġengine ered
ryst all
Ġglauc oma
V T
n am
ly mp
pec ific
ĠD H
Ġaut osomal
Ġcondi tional
ulf ide
ĠMg Cl
ĠAI DS
Ġs ib
Ġc ows
Ġn emat
Ġal iqu
ĠP ath
Ġde ploy
âĪ ¶
Ġcool ing
c ause
f a
z a
Ġm and
Ġst ake
Ġpro jections
ĠAP P
Ġcircum ference
Ġrig id
Ġinver ted
Ġimmunost aining
re vi
ac il
Ġv ig
Ġmor ning
Ġstop ped
Ġtranspl anted
O x
e en
Ġp estic
an yl
ĠP FS
ĠF S
eren t
âĢī 6
tr acted
Ġphosph atidyl
Pro tein
Ġfal cip
Ġaccom mod
H is
d ec
âĢ ĺ
ĠA Ch
ag ent
ĠG r
Ġmon ocyte
Ġacet ylation
Ġim pos
Ġper spec
201 6
acryl amide
ĠCoch rane
Ġpro pos
ĠH o
de x
ĠK R
Ġso on
Ġsubc ellular
Cell s
M olecular
Ġr ational
pl ay
ĠR CTs
Ġexperi encing
Ġadv ice
200 9
Ġhorm onal
Ġesc ape
Ġperspec tives
Ġc ast
Ġle aving
ĠGen eral
Ġadequ ately
Ġneon ates
ĠBD NF
Ġaspir ation
Ġoutbreak s
Ġassign ment
Ġcoc aine
m ph
t oph
ran ce
Ġperiod ic
Ap plied
Ġfalcip arum
Q iagen
o arth
ing e
Ġcom es
Ġdet rim
Ġed iting
Ġapproxim ation
Ġampl itudes
ĠOR F
sm all
selec tive
Ġmosquito es
Ġcigare tte
C CA
ä ¸
ag ree
Ġchar t
ĠCH D
yb ean
b io
Ġp ocket
Ġf illing
Ġre act
ĠL L
Ġinform ative
Ġdom inated
Ġsaliv a
O V
c oxon
l ist
Ġst och
Ġcontrib ut
Ġdele terious
ĠGerm an
oe a
Ġbrid ge
. ),
re al
Ġe uth
ĠP ur
CT T
Ġder ive
EG s
vis ions
at onin
ra bb
ĠA BC
ĠH CT
Ġhelp ed
ĠCom par
ĠPseud omonas
h an
Ġb atch
est ab
Ġcorrespon ded
Ġmit ral
aw a
Ġsem antic
Ġing redi
f r
Ġl up
Ġg ent
ĠM id
Ġmo ved
Ġprec isely
Ġinterest ed
trans l
Ġna Ã¯ve
F V
Ġo phthal
Ġc ub
Ġin ability
lec tively
Ġsub sc
Ġfacilit ating
Ġbr ight
Ġsilic on
Ġretic ulum
Ġrheumat oid
s ue
ĠT BI
ĠD isc
Ġgene tics
Ġcereb ellum
Ġdesi rable
ĠS ocial
ĠD o
ĠD SM
âĢī âĪĴ
13 2
Ġglyc ine
Ġbio availability
kin ase
Ġharm ful
O G
d et
un ic
ĠF luor
Ġmon omer
rolog ical
Ġer os
ĠHS V
Ġidi opathic
h r
r ically
Ġp ict
il t
tiv ities
Ġwhere by
Ġphot ore
g p
g ment
s ch
Ġs outh
Ġan ion
Ġper ox
ast ructure
Ġsp an
ĠSp ain
Ġ29 3
L L
e ight
Ġp in
Ġand rogen
de g
Ġdeterm inant
Ġsyndrom es
Ġac up
Ġk illing
Ġproper ly
% âĢĵ
al d
Ġpro of
op s
Ġinf rared
Ġanaly se
Ġov ary
Ġ ips
ro st
ac id
Ġn avig
Ġtr unk
Ġge ometric
Ġadmission s
on yl
Ġb a
ot rophic
ĠM t
ĠH MG
Ġdiff ering
Ġcl onal
ĠIn str
ep s
Ġop posed
erc ap
me as
opl ast
Ġtrop ical
n ic
ec e
ran dom
Ġdo ing
gl ob
ĠRam an
ĠF ood
ĠR iver
ip ot
ĠÎ ·
Ġbiom edical
Ġab domen
Ġref lux
Ġso ybean
Ġenh ancer
Ġpor ous
Ġinst ances
Ġcytos ol
Ġsp ut
effec ts
Ġsearc hes
otrans ferase
Ġlearn ed
Ġf ire
st rand
por tive
Ġmic ron
urren ces
CT G
bl ock
Ġhaem at
d d
n als
as y
Ġk ern
Ġall ergy
ob i
Ġpost partum
Ġapp end
Ġgran ules
Ġlif es
inform atics
rabb it
Ġf oss
ac o
ĠT ogether
Ġnot ably
Ġbl ank
ĠÎ ¸
Ġprog ressively
Ġlim bs
AS P
Ġepidemi ology
Ġhabit ats
ĠChem ical
e z
g r
Ġc hel
Ġ( [
us sion
uc cess
Ġcom mit
Ġgener ates
Ġguid eline
Ġden ote
Ġanalog ue
ĠHF D
odial ysis
P ATI
Ġa ph
ti a
Ġcl amp
ĠL P
Ġar rangement
Ġel ast
Ġpor cine
Ġneighb oring
Ġpharmacokine tic
c el
Ġf MRI
ĠM i
ĠF P
Ġsol ar
Ġplaus ible
en ergy
Ġal anine
rop athy
Ġaccel eration
gal act
Ġupd ated
rele vant
C ar
al g
ĠR as
Âł (
Ġgener ic
200 8
Ġstabil ized
Ġrank ed
Ġlet ter
ĠA CE
ĠM ultiple
Ġle v
ib er
Ġexpl oring
Ġster oids
Ġstri atum
Ġblind ed
Ġmicrotub ule
F l
om iting
og rafts
Ġr ings
Ġgen ital
ĠV I
Ġcirc le
Ġapproxim ate
Ġbio active
Ġagric ultural
- [
od ds
Ġr pm
ĠH sp
Ġall ocated
LA B
Ġpig ment
oxygen ase
G y
b ir
Ġc it
es ophageal
an z
Ġinc orrect
Ġwh ilst
ĠR adi
ĠN PC
pro lif
Ġrec t
ill ion
Ġun e
Ġanti sense
Ġclass ic
Ġcur ric
Ġelectro static
Ġir respective
Ġves icle
Ġminor ity
Ġentit y
l ong
re ceptor
ĠA CC
Ġpl ur
ĠÎ µ
10 8
ex posed
Ġpo ols
Ġgra ded
xim ab
Ġemo tions
Ġmicrobi ome
Ġlet ters
Ġrod ents
w ord
oc us
Ġnot able
11 9
Ġdisc over
air y
ĠUn fortunately
Ġlip osomes
Ġmig raine
Ġmagn esium
C hem
Ġp a
Ġp lex
ers ed
ĠN an
Ġreg istry
Ġtrans pos
Ġy ielding
Ġins pec
Ġchem okines
Ġheter ozyg
Ġimpair ments
Ġpall iative
Ġplacent a
Ġt am
Ġc affe
Ġn ausea
ol ab
ĠM AL
Ġchem ot
Ġterm ination
Ġvisual ize
sec ond
rac ycline
Ġtax onomic
Ġelect rom
Ġtriglycer ides
E p
in j
le b
Ġcol ocal
Ġselec ting
Ġcarcin ogenesis
Ġnam es
Ġatheroscler otic
Ġkeep ing
Ġintermedi ates
Ã ¤
om od
et ary
um ps
Ġbreast feeding
Ġdeb ate
Ġamygd ala
Ġser op
Ġtox ins
Ġspati ally
Ġaspir in
G N
T OF
re tro
er ally
Ġcomp an
ĠTh ose
Ġreveal ing
oh n
Ġweak er
Ġpy ruvate
Ġvic tim
review ed
S o
Ġ19 89
Ġj ejun
Ġmedi ator
IN E
ĠGen ome
O E
Ġt err
ĠT RA
Ġinf erence
Ġrel ig
Ġund ers
Ġred und
Ġprop ensity
ĠCF U
Ġprogen itors
Ġpoll ut
ĠTu key
M yc
c is
c it
re port
ur ane
ong ue
tr ast
Ġbr ach
Ġbroad ly
dim ethyl
Ġregular ly
Ġdisch arged
L ong
a ign
f ile
Ã §
ur in
od ic
od end
Ġstr ing
Ġtr ust
Ġel uted
Ġchem okine
Ġreli ably
ĠIndi vidual
Ġdop aminergic
lit axel
ĠE ffec
ack ground
Ġ19 88
Ġleg al
Ġhypothe size
Ġsed entary
Ġwrit ing
Ġclon ing
N eu
b ad
x ia
il ical
ĠI N
Ġpre y
erg ed
16 0
Ġabnormal ity
Ġcrystall ine
Ġdex amethasone
Ġcorro bor
ĠDat abase
R oche
Ġb at
ĠI A
ĠM el
ĠE SR
Ġass istance
Ġrec yc
12 9
Ġref erences
Â° ,
Ġdiscrim inate
Ġgradi ents
Ġslic e
Ġstoch astic
, [
op timal
pl ies
Ġbi od
Ġspecial ist
Ġbreak down
Ġple ural
Ġacces sibility
Ġpiv otal
V EGF
Ġh ands
Ġex osomes
ĠP i
gen esis
ram idal
struc ture
Ġtele phone
F orty
Ġh ope
Âł M
ari an
av ir
Ġfre ed
Ġphen ol
ĠAD P
Ġperi operative
P atient
R OS
b ow
n utrition
Ġb ac
ĠO B
Ġsc anner
ron ectin
18 0
Ġlymph atic
char acter
effec tiveness
men opausal
Ġgangl ion
b ottom
Ġth rom
ly s
Âł %)
ĠW M
mon ic
ĠAn imals
ĠMD R
Ex pression
Ġattit ude
Ġt rem
Ġin gestion
Ġm aster
am ines
ir ubin
ĠI ts
ĠL R
Ġutil ize
Ġdri ver
Ġinduc ible
Ġaggreg ate
Ġgraph s
tox ic
O r
Ġs ports
Ġd in
Ġe ther
Ġhy gi
brid ge
Ġversion s
Ġweak ly
ĠÏ Ħ
Ġpolyp eptide
Ġhighlight ing
ĠRP MI
H b
ĠP AR
Ġcan ine
Ġmin i
Ġremark ably
Ġinher ited
lymp us
Ġdetrim ental
d epend
ary ng
form aldehyde
per ature
Ġro utes
Ġli ves
Ġprim ing
Ġhydro gel
Î¼ m
ĠRes pon
Ġsqu ares
Ġcouns eling
E BP
m icro
Ġin organic
un it
Ġcon e
ch rom
jec ting
âĢĿ )
Ġoper ational
Ġshe et
Ġconstit utive
Ġalb icans
mark s
Ġfif th
Q P
Ġn as
Ġsh apes
Ġec osystem
isp anic
Ġneurotrans mit
ĠCRI SPR
re a
he t
es are
ac tional
ine ar
Âł ng
Ġphot on
ĠPh arm
Ġdissem ination
T ime
ul ators
Ġend points
ĠPl asm
Ġsummar ize
ĠQu antification
Ġdend r
Ġtight ly
Ġdispers ed
Ġanne aling
Ġvolunt ary
U P
g ar
o ys
as ted
ĠC ys
11 5
Ġmy osin
trans fer
Ġfollic ular
Ġball oon
Ġdox orubicin
Ġmandi bular
R ep
â ĨĴ
Ġc ities
ĠSt atis
Ġdri vers
Ġbir ths
Ġenrol l
Ġattack s
Ġconstitu ents
M ultiple
am es
ĠM aterial
ĠR D
ĠIn stead
Ġaffec tive
Ġrest ore
Ġincorpor ate
Ġfin ite
Ġanat omic
Ġhazard s
ĠPub Med
V P
h yp
Ġc age
it zer
Ġno ticed
Ġ12 8
Ġelectr ons
ĠIm ages
bb revi
With in
Ġcomorb idity
h olic
Ġa ce
it um
Ġd engue
Ġb ones
ad ed
Ġmon otherapy
Ġdep art
12 4
ĠFig s
Ġpancre atitis
Ġer ythem
Ġmarg ins
G u
om ed
Ġn s
Ġac yl
ĠP LA
pl ates
Ġim per
ĠH ol
ĠL F
Ġund et
Ġexpl oratory
hip s
CG A
Ġimplement ing
ĠAT CC
Ġspl en
ĠIntern et
ĠGS K
ropl asty
Ġ( âĪ¼
ĠT c
op sy
Ġele gans
Ġdiss ected
Ġve ins
Ġguid ed
Ġveget ation
estic ular
lipid emia
ecl amp
a verage
f ish
re qu
Ġlow ered
Ġmeth ylated
ack s
elf are
Ġ16 0
Ġgly ce
Ġrh in
ĠSI RT
Ġformal in
ĠLik ewise
Ġvisc osity
U G
at ology
Ġr ation
Ġcont rad
Ġtrans ported
ric k
Ġoper ator
Ġdiamet ers
ij ing
Ġanalges ic
U A
ĠN one
Ġtrans gene
Ġtri ang
Ġpat ches
Ġang ular
ĠPA RP
Ġeng aged
Ġglut amine
NC E
ĠKore an
ĠDifferen t
Ġspor adic
ti les
Ġg ate
Ġg ame
ĠT ra
ĠH EP
Ġle an
ĠG D
Ġmicro vascular
ort em
ink i
Ġclass ifier
osp erm
itin ib
process ing
ĠCent re
Ġneighbor hood
Ġlifes pan
Ġc och
Ġin appropriate
Ġr ins
ĠM DS
Ġam ph
Ġbl ots
plic ity
Ġiniti ating
enter ic
Ġca ution
Ġalign ments
Ġwound s
Ġimped ance
A NOVA
G a
Ġ( *
ce an
am en
Ġex em
Âł mL
Ġimp ly
Ġfl oor
ĠRe f
Ġavoid ed
ĠTNF Î±
Ġrecommend ation
ĠDifferen ces
on azole
Ġin activated
ĠC HO
ĠD ie
ĠL o
ores t
Ġlower ing
14 6
ĠPro t
Ġadhe sive
Ġexerc ises
ultiv ariate
ĠA PC
ab etes
00 9
âĢī ng
Ġexc ited
Ġrap amycin
Ġdys p
Ġperoxid ation
Ġextinc tion
Ġplur ipot
) ].
s u
Ġin version
ar ial
Ġe jection
el le
ur nal
âĢ ĳ
Ġper ceptual
MP s
Ġrepl ace
tra um
Ġtes tis
Ġintermit tent
esare an
Ġa fore
Ġv ibr
oc ol
Ġle ave
vi e
Ġpo inted
200 7
Ġprote ases
Ġstratif ication
+ )-
en zyme
em ed
ĠM olecular
Ġclin ician
orb ent
orth y
epit helial
N one
Ġf ill
ĠC re
op ter
ĠI HC
Ġcomp act
ast ric
our ce
ograph ically
Ġpossi bilities
Ġavoid ing
Ġrobust ness
Ġstri king
Ġrevers al
ĠAK I
Ġanticip ated
ĠNet work
w id
el lect
ĠF low
Ġconf ined
Ġcap abilities
Ġcultiv ars
Ġcrop s
Ġenl arged
p ress
Ġp od
Ġd ashed
un n
uc l
Ġco herence
ak a
Ġstate ment
ct omy
Ġspectromet er
Ġvulner ability
R et
c ing
n ine
he tic
ter al
Ġcom fort
ĠM ut
Ġph on
Ġbi ased
Ġext rap
Ġstruct urally
Ġmultiple x
Ġhydro chlor
Ġstar vation
D ep
v estig
ĠD EN
ĠL DH
Ġsurvi ved
Ġdeple ted
Ġfluor ide
Ġâĸ ¸
H ep
m C
ĠB u
ip ital
ĠL N
pon ectin
Ġpath ologies
Ġsec urity
Ġintra peritoneal
Ġdivid ing
Ġaccomp any
Ġdiver gent
Ġaug mented
Ġanalges ia
Ġinsec tic
L ow
Ġp aid
Ġh ole
Ġst ran
ĠS ym
ip er
Ġcot ton
Ġips ilateral
s ample
Ġc ranial
ens ing
ord ered
int ensity
Ġprote asome
Ġsatisf ied
Ġgrad ual
Ġce phal
Ġexceed ed
C d
ac yl
ĠA ut
di a
and a
Ġsup plied
Ġsol ve
Ġsol vents
Ġatt ended
lo op
ar ith
Ġe ase
us s
Ġv omiting
Ġch itosan
Ġ[ (
ĠIn t
Ġcompos ites
rome ga
Ġinterview ed
Ġneurop athy
Ġduplic ate
Ġoligonucle otides
Ġorb ital
Ġch aper
Ġhe ated
Ġrece iver
12 6
11 7
Ġcharacter s
els inki
Ġtransi ently
Ġanesthe tized
Ġdup lex
Ġonc ogenic
Ġcomprom ised
augh ter
Ġwebs ite
E E
E l
at ins
it ter
Ġm ent
ig hed
ĠT hermo
yl ic
Ġra ise
RT I
Ġir rig
Ġmel ting
Ġacqui re
Ġannot ations
Ġcorticoster oids
N N
ol ol
ol ymer
Ġl ot
Ġv ibration
Ġdi oxide
Ġsp arse
Ġteam s
Ġvas odil
m ac
im a
Ġg ains
ot ing
MS C
be it
Ġure th
a vid
Ġs arcoma
Ġd airy
ic ago
ĠF DA
Ġam plic
Ġli vers
ĠK D
Ġ19 87
Ġmen str
ĠNor thern
target ed
Ġdispers al
S OD
e lectro
Ġl in
Ġl on
ĠP f
ĠM AT
Ġsub cl
Ġph one
Ġcre ation
Ġexact ly
Ġcompens ation
ĠNAD PH
ozo a
Ġammon ia
Ġoligonucle otide
Ġp ep
ĠC ro
ĠC oun
ĠS outhern
ĠH elsinki
ĠG a
Ġcor n
Ġcaus ative
atin um
ĠAL S
Ġeryth rocytes
Ġreinfor ce
Ġimmunoblot ting
Ġafore mentioned
ĠC AT
ĠP s
Ġ4 50
Ġno tice
Ġmon keys
Ġsk ull
Ġnan om
ĠAL T
Ġod or
Ġmyocardi um
ĠTGF Î²
Ġren der
ĠMean while
ATP ase
Ġpara formaldehyde
Ġprescrib ing
z o
ĠP ac
ĠR AS
Ġsup plements
yc ardia
Ġdeterm ines
CA R
AS H
Con clusion
Ġrespond ers
dep th
Ġrough ly
C yt
k appa
p f
t ogether
Ġo le
ĠB W
ĠL M
Ġspec ulate
identif ied
tr um
sy stem
Ġhere in
Ġprost agland
ĠBL AST
D B
G H
ĠS ec
Ġpre treated
per g
Ġsp ray
%) ;
ĠQ uality
Con trol
Ġnor th
Ġsor ting
Ġsacrific ed
Ġfreed om
h u
p ost
â Ĥ
en em
Ġs ay
al anine
ĠF ITC
ĠN MDA
eth anol
Ġlink ing
ĠSch ool
Ġcompet ence
Ġveget ables
l ass
Ġs elen
ĠC hen
ĠP W
Ġass isted
Ġap ex
Ġexc ised
Ġintegr ate
Ġorigin ating
Ġau tism
Ġhors es
Ġpsori asis
at ural
Ġh omes
ĠA Z
ĠG olgi
Ġnon specific
Ġthere after
Ġradi ographs
Ġtop ology
Ġcardiomy ocytes
Ġstret ch
p air
Ġf err
Ġat tain
ĠH i
ip al
Ġ10 8
cl usions
ĠRe al
obacter ial
- )
il is
duc tor
ĠN B
NA c
all is
Ġcar ies
ke ep
Ġprom ise
Ġenti ties
Ġbelong s
Ġendomet ri
ar an
ac i
ati d
Ġal umin
ad m
Ġnon invasive
erc ury
ĠMR SA
Ġinsu fficiency
Ġmism atch
8 00
L PS
Ġsensi tization
Ġcontrac tile
prising ly
ĠNI H
Ġfertil ization
IK V
transl ational
L M
s ter
Ġthe ories
Ġd ermal
ic idal
Ġ10 7
Ġorig ins
ĠOn t
Ġbro th
Ġturn ed
Ġcultiv ation
Ġobvious ly
Ġgangl ia
Ġascer tain
E le
c an
Î µ
Ġ :
ĠP sych
Ġsub tle
Ġsup portive
Ġsm art
ST UDY
Ġheter od
Ġalter ing
Ġmel atonin
ili ac
ĠÏ Ģ
Ġspl enic
ĠPr ism
ĠSer um
Ġsynovi al
Ġinspec tion
Ġs s
Ġb rought
id den
Ġres idence
ich i
Ġech o
Ig G
Ġging ival
itzer land
a rest
Ġp aro
Ġe IF
os um
Ġhe me
Ġint ellig
form s
Ġsur rogate
ĠU pon
rosp inal
p a
Ġsim ulate
ex per
con dition
Ġinflu x
tt es
anal yses
Ġtail ored
Ġbiofil ms
ĠFour ier
K D
f it
Ġ ros
us hing
ati o
ĠF ACS
Ġbi ases
Ġend ocytosis
av or
Ġlink er
Ġadop tion
Ġbreak s
ĠIs land
Ġjuven ile
Ġperin atal
N i
b all
Ġc up
os ition
unc tiv
Ġlab els
Ġhydro xy
Ġsex es
Ġves ti
Ġabsorb ed
Ġvascul ature
ĠCand ida
y an
Ġ 000
Ġt iter
Ġin tim
ĠS AM
ĠP et
Ġanti psych
Ġimp ul
Ġste el
Ġsummar izes
Ġsor ted
ocomp atibility
X A
h ou
es sive
ĠA BA
th reat
Ġdesc ending
ru ent
Ġplate au
Ġglob ally
Ġperipher y
olec ules
igen ous
Ġorient ed
Ġanalog ues
Ġemphas ize
ĠRel ative
ĠWil coxon
oarth ritis
b is
Ġl ing
ĠD F
struc tured
Ġsil ico
ĠCom mun
ĠDe velopment
Ġspread ing
Ġrod ent
Ġasymmet ry
Ġcamp aign
PATI ENTS
B etween
S chem
S ETTING
r active
ic ol
st ere
ĠD U
Ġmod ulus
Ġcalc ification
ĠCD C
inter vention
Ġmyel in
Ġpel lets
Ġconform ations
Ġfollic les
Ġelectroly te
Prim ary
is tics
ar ant
am el
ĠA x
Ġinc en
ap ine
Ġconf er
Ġreview ers
Ġfl ask
hold ers
Ġneurolog ic
Ġmess ages
Î »
ur ic
Ġg yn
Ġst ably
Ġpro tr
Ġres usc
ĠF EV
ĠR PE
PD F
Ġeas ier
Com par
Ġtom ato
Ġdrop ped
Ġbox es
Ġjour nal
Ġvaccin ated
ï¼ Į
Ġw k
at ellite
Ġb ot
ĠI OP
Ġsp ite
Ġar c
ful ness
Ġpict ures
Ġt urb
Ġt wenty
ĠN rf
Ġpul p
Ġventi l
Ġoverexp ressing
Ġirre versible
Ġt ongue
Ġs ial
od ec
ĠN J
Âł p
Âł ml
Ġun w
Ġdem ographics
SA ID
15 7
Ġfist ula
b it
d m
Â Ń
Ġo ocyte
er sion
ar ity
di i
ĠH el
ĠF ile
Ġk its
Ġ10 2
iss on
Ġexpl aining
ick ed
Ġsuc cessive
Ġinternal ization
ĠPT H
ĠAA V
Ġbrom ide
y rin
Ġde emed
Ġne oplastic
opl asia
Ġion ization
Ġansw ers
ĠPrim ary
ĠGW AS
Ġmoist ure
Ġc ock
Ġres olve
âĢī Hz
ome gal
Ġ10 3
Ġpo res
Ġprote omic
Ġdele ted
ĠAltern atively
h oc
al t
Ġp ull
Ġn t
Ġrespon sibility
RO C
Ġtop ics
ĠCon f
Ġconver gence
Ġsci entists
ĠAp pendix
Ġcompr ise
Ġpolar ity
ĠHEP ES
H yp
t ests
Ġap t
Ġpl aces
ĠL I
âĢĻ -
Ġ19 85
Ġdiagn ose
Ġglyc ogen
Ġinfarc t
Ġplatform s
Ġfabric ation
umm ary
Ġantif ungal
T en
Ġt aste
re on
Ġp he
ĠH yp
Ġcl ients
ear ly
Ġexpl ains
Ġcharacteris ed
Ġgu inea
Ġlys osomal
Ġovere stim
Ġpolymorph ic
Ġexplicit ly
hyper tensive
Ġd edic
ur ate
ĠT wenty
ut s
Ġco il
Ġtrans duced
con f
ĠSc ore
Ġcheck point
Ġapplic ability
Ġsegreg ation
Ġphant om
v est
in ous
or f
Ġe ll
por tion
ost atin
and er
Ġsp aces
Ġvis ually
Ġcur c
Î¼ g
Ġmac rom
Ġphosphor us
Ġconstrain ed
Ġimpos sible
D et
P e
i osis
Ġa rous
on c
at ation
an ing
th ird
lec tive
Ġreg ulations
Ġman aging
Ġcomb ine
co upled
me tic
Ġur gent
bo ok
Ġhypoth alamic
Ġteac hers
Ġace tic
B F
s im
Ġ {
ro om
ĠT D
ĠC ap
Ġdis ulfide
ĠD G
ĠD ESIGN
tiv ation
Ġref ined
Ġel abor
Ġdesign ing
Ġest radiol
Ġte a
Ġill umination
Ġdys plasia
Ġload s
ĠLe vel
ĠSup porting
Ġtriglycer ide
hep atic
ellect ual
Ï Ģ
Ġw ing
an ia
Ġre aches
Ġaut onomic
Ġchem otherapeutic
Ġlo oking
arb onate
Ġ48 8
ĠSw itzerland
chym a
Ġcatar act
Ġlup us
ly mph
ĠN AC
12 7
ĠPC a
opol ysaccharide
Ġdrople ts
z one
Ġb olus
The ir
ĠO C
ox ia
Ġimp lying
200 6
Ġcomput ation
Ġinterfer ing
Ġhyperg lycemia
Ġcurv ature
Ġt esticular
en a
res tr
Ġdi aph
ĠG lobal
ĠJ AK
Ġchem o
Ġcirc uits
olin ergic
ĠWh at
Ġconfig urations
Ġprov ince
otub es
Ġultrason ography
oxif en
ĠT or
Ġres ili
ĠN AF
Ġint ubation
12 8
raph y
Ġtr aces
Ġsk ill
Ġmagn et
uff ered
Ġperturb ation
ĠRES ULTS
Ġc ow
ol is
ati t
Ġpar am
Ġsmall est
ĠAd ministration
retro viral
H ow
Ġo pt
ĠT w
ven tional
Ġexper tise
Ġfib res
lus ive
Ġproblem atic
Ġaccept or
Ġwa ist
Ġexer ted
Ġobst ac
n umber
v ir
le tion
os acchar
im es
Ġst ool
ĠS BP
ĠB ax
raph s
Ġwork ed
ins ulin
ĠY ork
Ġsuspension s
Ġrig orous
Ġconstitu tively
F F
Ġe igen
ati vity
th at
Ġconflic ting
Ġhypoth alamus
ulos keletal
Ġvox el
b red
m ar
ol ateral
ri pt
ĠI CP
In tra
ĠCh icago
Ġadop t
Ġcultiv ated
Ġharb oring
estab lished
K Y
Ġex ecutive
Ġqu ery
11 4
Ġreal istic
Ġrich ness
Ġaccompl ished
Ġcatech ol
t z
Ġs agittal
er gen
Ġcomp ute
ĠG Ps
ĠG SE
tr al
Ġassoci ate
12 1
Ġret ard
ĠQ oL
Ġsl ide
Ġemploy ees
for ce
Ġge omet
onucle ase
ĠBe fore
Ġbronch ial
Ġgrain s
E GFP
G AG
ĠI TS
ĠB as
ĠR SV
IC U
Ġthromb in
Ġprophyl actic
Ġinhal ation
Ġumb ilical
eclamp sia
i red
Ġn ested
ob ut
Ġtra bec
Ġpossess es
Ġdiscussion s
ĠCan adian
Ġappropri ately
Ġcorp us
Ġeuth an
threat ening
G MP
ĠC he
up pression
ĠM eth
Ġcomp uting
ĠF in
Ġ19 86
Ġmax illary
az ep
ole t
obl astic
Ġmanifest ation
ĠNC BI
Ġgraf ting
Ġjour nals
Ġimbal ance
S te
Ġb ag
Ġh its
âĢī months
ĠW I
con n
tin uous
arb oxyl
Ġdeep er
Ġt ables
os te
ĠC t
ĠU A
Ġ12 9
til is
trans formed
Ġperme abil
Ġvirt ually
Ġhous ing
V D
l ie
in duc
ed ge
Ġv ocal
ĠS NA
Ġpar ac
gen ome
Ġidentif ies
ĠÎ¼ mol
Ġlys ate
AI DS
Ġstig ma
uccess ful
ĠDie go
Ġs ati
Ġre plicated
ĠT ur
ad o
ĠR em
rec tional
oph ores
Ġcap ital
Ġclass ify
Ġpolyp hen
Pl asma
Ġneighb our
Ġshorten ing
Ġt alk
ĠC orporation
Ġsh oot
ĠE t
Ġcl ot
Ġdevelop ments
Ġhyp o
Ġline arly
ĠCom parison
Ġcatal ysts
Ġconstit utes
Ġanalog ous
Ġemphas ized
Ġdedic ated
B ackground
d ase
Ġn est
ĠD PP
Ġimmun ized
Ġintro ducing
olec ule
ĠBl ue
Ġasc orb
ĠSign aling
r atic
Ġpro pri
ĠB E
ĠB acillus
Ġsign ed
Ġob l
ĠW ork
Ġinv ari
Ġend oscopy
13 5
Ġsearch ing
Ġaer os
Ġrequ est
Ar g
eff icacy
h ist
Ġs ar
ĠH Cl
Ġrec essive
ax ial
reg ulate
AC C
Ġsal inity
Ġconn ective
Ġantigen ic
Ġsuppress es
Stud y
Ġunp aired
ĠNon etheless
Ġamin otransferase
trac ellular
Ġarbitr ary
c DNA
ro le
Ġto day
id emi
Ġg em
Ġis let
ĠH eart
ub b
Ġen anti
Ġinf r
ak ed
Ġtim ely
Ġacc id
Ġoff set
Ġtransl oc
Ġdil utions
Ġsubstit uted
tub ulin
carb on
Ġexer ts
nec ess
ĠKing dom
+ .
T K
if iers
Ġis lets
ĠP CI
se x
Ġpr ice
Ġpathoph ysiological
ĠZh ang
Ġcurc umin
M y
p eptide
al o
Ġd ust
ur ium
id ia
Ġis ofl
ĠP GE
so ver
Ġman n
inding s
eng er
Ġdel ays
Ġmit ogen
Ġgo ing
Ġsurvey ed
Ġtransport ation
ĠSp earman
Ġtempor ary
ĠGen Bank
Ġartif acts
Ġworm s
l uc
Ġd B
ĠS AS
ĠF ound
Ġanti ser
Ġfr actional
Ġmedic inal
Ġaccess ed
Ġinser t
Ġrob ot
Ġden oted
Ġneutral izing
ĠBAL B
Ġsubpop ulations
ot helial
ĠB acter
ĠB BB
Ġfree zing
Ġprost hesis
AI MS
Ġconfound ers
Ġhous ed
ĠI Q
qu ine
ew orthy
ord ant
Ġarter i
Ġprote ome
Ġalk yl
appro ximately
Ġxen ograft
h t
he ast
ĠM il
ore g
ob enz
11 3
Ġfib re
Ġcur ative
Ġprote olytic
Ġent ropy
Ġtet ram
ĠCd c
Ġgal act
Ġkeratin ocytes
assemb ly
c ap
ã Ģ
is is
ig g
ĠF orm
Ġconc ordance
Ġdifferenti ating
Ġpain ful
Ġconsum ers
Ġolig odend
ĠIR F
Ġsat ellite
Ġelectroph ysiological
sm ok
Ġgerm line
Ġlith ium
Ġw ire
Ġb riefly
el ess
et ine
Ġl y
ĠI r
Ġch ip
Ġdi am
Ġprior iti
Ġdiss olution
Ġexplan ations
uz z
uz umab
Ġpip eline
Ġmaxim ize
Ġrefine ment
c ulture
ĠN iger
Ġmut ual
Ġret rog
Ġadd iction
Ġparen chyma
odon tic
Ġverte bra
ĠSm ad
Similar ly
L ys
w orm
os h
Ġg iant
il ized
âĢī âī¤
Ġcompos itions
Ġneuro protective
Ġimm ig
Ġens uring
Ġstrom a
Ġpac litaxel
ĠStre pt
Ġpoli tical
Ġenroll ment
Ġdepart ments
0 25
A u
c ase
Ġa w
os ensory
ot opic
ĠP ort
Ġsc anned
Ġro ad
ĠPro te
Ġfree ze
Ġsed ation
DOC X
H M
T s
Ġb are
Ġe V
ĠC ardi
Ġcol ored
Ġgra des
Ġgu arant
Ġdim ethyl
Ġacet onitrile
ĠATP ase
Ġnanopartic le
Ġschem es
Ġprogen y
ĠSup er
Ġuniform ly
tox icity
rus kal
Ġimmunoprec ipitation
Ġsubsc ales
Ġhygi ene
D ec
b uffered
d ark
r il
ot roph
ĠA bs
ĠS AR
ill ar
Ġall oy
ĠY et
Ġorig inated
Ġn ation
ati al
ir ds
se ven
Ġk cal
erc etin
Ġpsych iat
ank s
Ch ar
Ġaden ovirus
raz ole
Ġcompens atory
ĠĠĠĠĠĠĠĠĠĠĠĠĠĠĠĠ ĠĠĠĠĠĠĠĠ
cyc le
' t
R C
Ï ĥ
id o
Ġ10 9
ĠSp anish
Ġadi ponectin
Ġhydroph ilic
Ġnic he
Ġsustain able
ĠSY BR
b u
al and
Ġn ick
Ġres ected
Ġres orption
ĠR BC
Ġk illed
end ocrine
ex ist
Ġsk ew
âĢ² )
Ġstep wise
Ġul cers
Ġalle lic
âĢīÎ¼ L
Ġbran ching
eterm ined
T GF
v entricular
ĠC urrently
ĠB I
Ġra ises
Ġmicro v
opath ologic
bi ased
Ġglyc olysis
acet ate
Ġcereb rospinal
Ġconjug ate
ĠZn O
Ġenl arge
oler ance
Ġepiderm is
E arly
Ġh im
od ia
Ġcont our
ĠD EGs
ch olesterol
tr on
ĠO SA
Ġhyp erm
Ġimmun omod
Ġfe eling
Ġregard s
oe lectric
Ġexclus ive
wid th
a que
or acic
ĠC le
Ġwe ighed
ĠL og
Ġqu e
Ġsp here
Ġdistinc tion
Ġchick ens
Ġens emble
Ġtrim ester
Ġheavi ly
D Cs
F E
M n
Ġw anted
at tered
Ġg ating
iz able
Ġint ellectual
Ġsc r
Ġun necess
Ġcollec ting
Ġresult ant
Ġsex ually
mod el
lab el
ĠAss ay
Ġuter us
ĠBrazil ian
Ġderm at
Ġphag ocytosis
Ġdisapp eared
Ġâĸ¶ );
Ġantico agul
ri o
ens es
Ġdisc om
Ġmulti disciplinary
âĢĬ 1
Ġdry ing
Ġdisplay ing
al is
Ġd urations
Ġh ams
Ġg rew
ĠC as
ĠM CP
Ġdis agree
ĠB H
rel ations
Ġdemonstr ation
Ġnan ost
orph ous
Ġtend s
ĠRO I
Ġcardiomy opathy
diagn osed
nR H
lar ation
m ortem
Ï ģ
ul as
Ġdi vers
ĠG B
01 5
unc il
cent age
Ġrepeated ly
Ġethyl ene
Ã³ n
Ġneoplasm s
Ġration ale
c omes
Ġb ending
ĠT ween
Ġal beit
Ġch olinergic
ĠF DR
Ġref ractive
Ġchem ically
Ġcontext ual
Ġdefin ite
Ġdepos its
Ġencour aged
Ġfa ecal
Ġancest ral
Ġinnov ative
Q OL
k b
im eter
ĠP lus
Ġdisc arded
con t
Ġhy stere
EG G
ipp ing
Ġlit ter
Ġgerm ination
ls bad
Ġsurfact ant
Ġacup uncture
= .
A ge
G TT
d iff
k ary
Ġf um
Ġf rail
ic ac
Ġg er
Ġac r
The n
Ġne arest
ĠL act
low er
Ġpresent ations
Ġext ends
Ġfib ronectin
vent y
Ġargu ed
Ġbatter y
ĠNAF LD
F isher
ĠP N
ĠP rior
Âł 10
Ġprob ed
Ġparas it
ĠAp o
Fif ty
W allis
on i
ĠA ge
ch annel
vi vo
Ġmod ulates
PA N
Ġaltern atives
Ġconven ient
OL D
fl oxacin
ĠMin i
Ġencour age
Ġinfer tility
Ġcontig s
R adi
b ond
l ock
Ġre ally
ig ibility
âĢī 8
Ġk appa
01 0
Ġpred nis
Ġfr uct
Ġmac ular
ĠPro v
Ġdoc uments
Ġglycos ylation
Ġspik es
Ġglyce mic
in ositol
Ġperform ances
Ġman agers
ect om
Ġwork flow
Ġmid line
alian a
AK T
Ġsched uled
grad uate
Ġpharmacokine tics
Ġchim eric
Ġstake holders
prolif erative
C X
D D
f en
m ass
en ib
os ides
ĠC Y
ĠS ES
ĠE U
âĢī 7
Âł >
11 8
Ġelec tive
CA A
effec t
otrop y
Ġcovari ance
E m
Ġs acc
um ental
Ġcom ments
Ġgen otyped
ĠL atin
Ġcons olid
ĠK en
Ġend oplasmic
Ġpost menopausal
Ġflow ering
Ġlog arith
Ġphyl ogeny
Ġtransform ing
Ġextrem ity
Ġmultic enter
Ġwaste water
Ġleuc ine
2 20
A cc
im p
Ġint ens
old s
Ġhem odialysis
Ġshe ath
Here in
Ġfibro us
luores cent
oprot ective
Ġcaffe ine
R B
V O
Ġw rote
Ġd f
Ġth inking
ub ated
Ġinter play
ĠO N
Ġar ranged
anc omycin
ex c
Ġpers isted
Ġdirec tional
Ġsimpl ified
ĠCaucas ian
b ro
Ġl ies
ly l
ĠS MA
Ġ3 50
Ġser ving
Ġtri ed
Ġintegr ating
Ġfollic le
hyd ration
ryst al
Ġmetall oprotein
Ġapprec i
o is
Ġ ic
Ġm agne
ir radi
ĠN ormal
ib b
Ġfol ate
Ġpost ulated
ĠTh rough
Ġcontinu ing
Ġau xin
Ġmobil ization
Ġcass ette
R L
Ġn ude
op ulmonary
âĢī days
ĠG h
Ġdr ift
abol ism
Ġmig r
Ġoste ogenic
Ġorganization al
Ġdiscontin uation
Ġstret ching
Ġlnc RNA
Ġposts ynaptic
Ġanaesthe sia
ĠMex ico
bbrevi ations
reon ine
L ab
T a
c ore
d ig
en riched
Ġw ard
Ġis land
ĠE le
Ġrandom ization
Ġbil irubin
Ġcham bers
Ġstrict ly
odynam ics
Ġtherapeu tics
K s
W HO
Ġs emic
Ġp yro
Ġf ur
ĠS ac
ĠH UV
Ġdis par
ĠF as
ĠE arly
tr act
per formance
Ġsurvi ving
Ġfl ight
Ġnec rotic
Ġmit osis
Ġher pes
Ġgel atin
lim ited
HP LC
ĠExper imental
Ġchond rocytes
pe ak
represent ed
Ġencoun ter
Ġkern el
/ +
< .
C t
G e
U l
d r
ç ļ
he ter
ĠD utch
Ġinter active
ass ess
ces sion
Ġpo ison
Ġmulti f
Ġglyc ol
Ġarch ae
crip tions
Ġiod ide
Ġthrom bo
t ol
Ġf its
Ġex isted
ir t
rom yces
ace ous
Ġdisc ipl
Ġcontr actions
omy el
ogene ic
Con clusions
empor ary
Ġadministr ative
Ġreciproc al
Ġdiscom fort
r p
Ġt ab
in is
Ġc ited
ĠC amp
ĠS a
ĠS ol
In s
Ġem erge
Ġcr ypt
ĠUn like
Ġsupp ressing
ocardi al
Ġdocument ation
ĠMon te
Ġnewborn s
Ġth aliana
ĠT Fs
Ġr ising
ĠB S
ult ures
ode grad
Ġstate ments
Ġsuper family
201 7
ili ated
Ġconnec ting
Ġeryth rocyte
Ġacetyl choline
Ġiod ine
Ġrear rangements
M ac
k Da
Ġ rip
Ġh o
pl ane
Ġinv ited
gen erated
me ga
Ġeas tern
Ġexce eding
Ġreper to
Ġfri ends
Ġnitr ite
Ġtransduc er
f ly
am ily
ĠM ich
ĠM CI
Ġpl atinum
ĠPro ject
Ġinterf aces
vol ume
Ġjud ged
Ġaneurys ms
ĠZe aland
Ġre ality
Ġv apor
ĠA U
ak i
ĠâĢ ¦
Ġcollec tive
Ġi NOS
Ġreal ized
ĠAg ain
Com b
Ġantioxid ants
ĠDec laration
ĠCor p
Ġtex ture
Ġm u
Ġm ang
ere bral
ĠT op
Ġcl oud
out s
Ġmeth ionine
Ġdevelop s
av a
oph ysical
Ġphys ic
oplasm a
organ ization
Ġenter ing
Ġhum id
Ġintravenous ly
cor rected
avail able
Ġscar ce
Ġdrople t
Ġantidepress ant
K n
M MP
S Y
g ic
he ads
Ġr an
ph ag
ĠB er
per fusion
Ġem ulsion
Ġcal or
Ġeff icac
Ġatten tional
activ ating
Ġlast ing
Ġden aturation
Ġwa iting
Ġcommit ment
M Y
M ax
S PSS
it t
Ġto uch
el d
ĠB F
Ġco operation
Ġmim ics
Ġcyl ind
M on
s ign
Ġre vascular
Ġh oney
Ġco oper
ost omy
Ġmod ifying
Ġorth og
Ġatmosp heric
Ġflank ing
M c
Ġc ef
Ġin hab
Ġan ter
ere x
ĠA CS
ĠE Vs
Ġsub tilis
end icular
Ġar ises
Ġfem ur
row ing
ardi al
Ġsuc cin
Res earch
Ġadoles cence
Ġanalog s
Ġpy ramidal
Ġillness es
aryn x
Ġdiscrep ancies
ĠZe iss
Ġri ver
Ġlign in
n itro
Ġe GFR
Ġis lands
ici ous
Ġel igibility
Ġoff ice
rog ens
mi as
Ġsymmet ric
Ġthorough ly
Ġarous al
e fficient
m y
s ection
Ġp ad
ure a
ran ean
ĠD ist
ĠN OD
ĠE MG
ĠL G
Ġsp he
Ġmicro bes
Ġunc o
Ġdys regulation
Ġcarbohydr ates
lact am
character ized
R ed
T ype
ĠC at
th i
Ġse asons
Ġimmun ocomp
Ġvol atile
Ġlack s
Ġmicros p
crip tional
Ġaqu atic
Y FP
t able
ist ar
Ġvari eties
Ġbi osynthetic
Ġobser vers
Ġcal ibrated
ensi le
Ch anges
ĠSe e
Ġisot ope
lies t
Ġscaven ging
çļ Ħ
c ycl
Ġf irm
om pos
Ġh olding
ĠM H
ĠD HA
ast ly
Ġam ine
Ġstress ors
Ġmusc uloskeletal
ĠPh ot
Ġdescrip tions
Mod el
traum atic
E ven
c f
Ġp ose
ub er
13 8
Ġfre ely
IN GS
Ġcat ch
Ġphysi ologic
Ġrepro gram
ĠGen es
Ġdisrup t
ĠItal ian
adren ergic
Ġmening itis
Ġfetus es
Ġhypers ensitivity
I ts
f ram
ra ding
ĠR CC
Ġprogram med
ĠReg arding
Ġtit anium
ĠBr dU
Ġfu el
Ġleaders hip
z ol
Ġd anger
Ġal d
ĠP res
ĠF SH
ĠR et
Ġk ary
ĠW omen
Ġanti retroviral
Ġform ulated
Ġpub er
Ġher bal
opro st
Ġanastom osis
Ġautoanti bodies
P B
Ġb ott
Ġ1 17
vi a
01 2
Ġun infected
Ġlig ase
Differen t
Ġresusc itation
+ ),
F DG
â ĭ
em p
ĠCh ild
fold ed
Ġcut ting
ĠÏ ī
iment in
Ġschem atic
adj uvant
Med ian
ĠOT Us
/ )
P romega
n orm
in iti
at ric
Ġcol lis
erc k
rag ue
200 5
ococc i
Ġinstruc ted
Reg arding
Ġdisapp ear
" ,
m RNA
t uring
Ġn ig
Ġam orphous
Ġsol ved
Ġshe ets
Ġcompan ies
T n
k o
in er
Ġm unic
Ġst yle
ĠT SH
ĠT umor
ber t
Ġadhe rent
ĠÏ ģ
ĠBe ijing
Ġconflic ts
Ġclar ified
Ġphospholip id
Ġars enic
T e
p res
s elf
Ï ĩ
Ġd raft
so ur
Ġmicro flu
Ġmat ches
Ġcent ered
Ġview ing
ĠSh anghai
Am eric
Ġwors ening
ĠDen mark
G ly
N et
d am
or tal
it on
it amin
ul sive
Ġst one
Ġpro line
ĠA ust
Ġch iral
Ġdis mut
ĠR ac
Ġrep ress
Ġmark s
Ġmen tion
AL Y
Ġstar ts
ĠAp proximately
Ġwind ows
Ġuncon trol
Ġeros ion
Ġs tic
Ġm ock
Ġh rs
Ġ1 19
od emographic
ĠA BI
ad em
ĠN CT
Ġab ortion
Ġbi ogenesis
CA P
Ġbo ok
Ġthromb ocyt
Ġmyel oma
Ġexpect ancy
ĠTreg s
Ġfibrin ogen
Ġmus ic
Ġpa ediatric
K B
T ri
in dividual
Ġs itting
um inal
Ġdis hes
Ġwe ather
Ġsub di
Ġsc in
ym et
min ute
arb y
ipit ated
Ġsput um
C urrent
f ixed
Ġm ere
Ġm ot
ul ae
ol k
ĠC e
ĠA MD
âĢī :
ov ir
Ġcle ft
Ġlat est
Ġide as
Ġtrigg ering
ĠCar lo
UN EL
angi ogenic
Ġanten atal
Ġcurric ulum
T ra
X L
al so
id ge
ĠT L
ĠT BS
ter ase
Ġpro c
ĠR CT
Ġab iotic
01 1
ĠPD GF
Ġfar ms
Pro t
Ġtranscript ase
Ġhemat oxylin
raf ted
Ġrh iz
Ġonc ology
ĠEth i
Ġtrache al
idel ity
s aturated
ut in
ĠE ST
ĠO ff
Ġsug ars
AP P
Ġdiagnos tics
Ġpsych osis
Ġplay ing
Ġcatal ase
Res pon
ĠAg ilent
Ġdistr icts
Ġbuff ered
X S
p al
w orld
y zer
he al
at om
if luor
ĠM CA
vi olet
13 7
Ġoccup ied
Ġcereb ro
Inc reased
ĠSwed ish
Ġunnecess ary
in jected
Ġs aw
Ġex port
ĠS ox
ĠB ur
ch i
âĢī âī¥
ĠIn vent
ĠĠ Ġ
Ġ24 0
MI C
Ġax es
sp ace
com ing
2 10
I U
p ic
er ving
or ted
Ġpro jected
ĠC yc
ĠB al
ĠR H
Ġprot ects
Ġperiod on
Ġcollec tions
Ġcho lec
lyce mic
ĠDN ase
Ġoccasion ally
Ġvertebr ate
T g
f arin
o ichi
Ġs ut
um a
ĠS il
Ġob lig
Ġcol ors
ond on
MS E
of ol
AS E
Ġartic ular
Ġdepend ency
ĠBi ot
Ġsynthe size
Ġcarbon yl
ĠAT G
âĢīÎ¼ l
Ġec osystems
olip id
Ġfresh ly
F GF
N evertheless
r um
ĠB RAF
ĠV AS
Ġthromb us
Ġhistological ly
Ġcolle ge
ophosph ate
B aseline
S NP
d x
Ġto w
od g
ĠP op
ys in
ĠL ew
Ġrel ie
Ġeffect ors
], [
13 1
Ġtub ules
Ġdim ers
Ġarth roplasty
Ġmicrogl ial
Ġhomogene ity
Ġhomogen ized
cha romyces
Ġhypog lycemia
Ġdebr is
Ġrecyc ling
W R
c p
Ġ |
Ġin effective
an us
Ġb ad
ul o
ĠE astern
ĠG ly
Ġprom p
yr ate
ĠSch w
ĠCar lsbad
Ġstre ptomycin
Ġlamin a
Ġupd ate
Ġexplo ited
Ġferr itin
N ote
t omy
in jection
Ġe lution
ut ely
am i
ĠA ST
Ġen erge
ip ro
ĠG mb
Ġqu en
Ġage ing
ĠAs p
Ġintr ons
Ġliter acy
Ġdistinc tive
Ġdig it
Ġneph ropathy
adm ium
ĠInvent ory
p resent
Ã ¨
Ġt ensile
os ure
ĠT yr
res olved
Ġ1 15
erm e
Ġsurg ically
ĠCa Cl
Ġfung us
Ġamb ulatory
dentif ication
Ġosm otic
c ross
ti de
ver at
ĠR ad
ens ed
Ġqu asi
amin ase
Ġacet one
Ġcoup les
Ġmicrotub ules
Ġbund le
Ġcros sover
Ġperp endicular
T F
Ġb ent
ac ute
ot emporal
âĢ ł
oc t
ĠH RP
ĠE duc
Ġall ergen
Ġmon omers
Ġsurg eries
Ġpsych ometric
Ġampl ify
Ġreflec tions
Ġundergo es
Ġgran ular
Ġven om
Ġgli oblastoma
ĠImage J
ĠServ ice
Ġplex us
D N
d b
f irst
Ġm ercury
Ġd enti
il ia
Ġr DNA
ĠB rain
ep tion
Ġro ck
Ġbi ore
Ġli ved
Ġhist amine
Ġneuro imaging
cell ulose
Ġindepend ence
ĠCal c
Ġresc ued
Ġrear rangement
W E
re tin
ic ion
Ġv ancomycin
Ġal ters
Ġsh allow
ap ing
Ġrec ur
Ġincre ment
Ġmicro c
quis ite
ĠDep ression
ĠMin istry
Ġrain fall
h ttps
or h
Ġn arr
ut ral
Ġinc omp
ĠH U
form ations
Ġam put
br ids
ocy st
MA IN
Ġparas itic
Ġbil ayer
Ġsi RNAs
Ġket amine
Ġdich otom
ĠMyc obacterium
Ġabstr act
Ġperfor ation
Ġflavon oids
u j
Ġc ave
Ġ( #
Ġn os
am ers
ĠS rc
Ġde generative
Ġim plicit
ĠH y
Ġco herent
Ġpath s
14 8
Ġanaly zer
li ers
Ġbrain stem
Ġdiscus ses
Ġregen erative
Ġcaregi ver
Ġfeel ings
ĠKR AS
v ail
Ġc uff
ĠE c
Ġdiff us
hed ral
Ġphot os
ĠCo uncil
Ġaggreg ated
Ġoccup ancy
Ġimmunos orbent
ĠMedic are
ĠDet ection
Ġna ive
alb umin
B esides
T H
W here
m yc
o ke
v astatin
an il
ĠS OX
Ġexp ir
ĠB AC
ĠR ap
Ġnot eworthy
Ġcl ades
Ġdom inance
oles ter
Ġnecess ity
Ġear liest
rit ten
Ġmes enteric
Ġconstrain t
Ġtryp toph
Ġmess age
Ġconj unctiv
.... ....
Ġcaud al
Ġcoast al
verat rol
D el
m ap
o ured
ar rays
ure tic
ad minist
ĠD SS
Ġover t
14 2
Ġclos est
ĠCom b
lab elled
Ġdistinguish ing
Ġaccompany ing
ĠGmb H
W omen
m ix
Ġs hel
Ġh idden
ĠG LP
Ġag encies
arg inine
ES I
ES T
Ġvis ited
Ġconsum ing
troph ic
Ġasc ending
Ġmetall ic
Ġhold s
Ġtransp arent
Ġdisl ocation
Ġexem pl
M g
s ocial
al in
id one
res id
Ġas terisk
ĠP y
th ick
yp ically
ĠG V
Ġit er
Ġk ill
Ġcor onal
In iti
wo od
Ġang ina
rin ting
ĠInc reased
Ġround s
Ġunex pl
Ġarri val
Ġundet ectable
Ġell ip
. "
h ost
o quin
Ġc ations
Ġd ere
op us
ph asic
ist an
Ġloc omotor
iter ranean
Ġneuro genesis
Ġread mission
Ġphot osynthetic
ĠRep ublic
Ġencour aging
ysacchar ides
ampl ing
Ġpollut ants
Ġretrog rade
f ast
m ill
v itro
Ġa vian
Ġb it
Ġ1 11
Ġ1 16
si vity
ĠE Q
Âł kg
ost at
ĠL y
ren ew
erg ent
14 3
Ġoper ate
Ġheter ologous
Ġpharm acy
Ġresearc her
Ġdiges tive
orient ed
Ġstran ds
C ardi
j e
y es
Ġb up
Ġr if
Ġch arges
Ġen amel
oci ties
Ġser ver
Ġmut ational
Ġorgan elles
Ġfac ulty
Ġaver aging
Ġperf used
Ġthym us
ĠPlasm odium
O p
l en
Ġh ub
Ġst atin
ĠM it
Ġsh unt
ĠN OS
Ġmet agen
ĠW istar
Ġunder lie
Ġtem plates
erc ise
af ety
Ġmy ofib
ND INGS
Ġprior i
Ġpap illary
ĠIm aging
Ġoste oblasts
Ch ronic
ĠMet S
Ġdie lectric
Ġrins ed
ĠDEN V
K A
b iotic
d ered
Ġs ister
Ġm C
ar ic
ar ate
im il
am n
ell er
ĠG AD
Ġcl ient
Ġanti hypertensive
Ġwork sh
zym es
Ġlip opolysaccharide
Ġeff usion
ĠPD E
Ġpor tions
Ġsuperv ised
ĠPo isson
Ġvertebr ates
Ġvesti bular
ib co
Ġpres erve
rec tion
Ġexam ines
Ġprog ressed
Ġimp acted
Ġapp oint
Ġlab our
Ġvi ri
Ġkin em
Ġabund ances
lim b
ritis h
Ġvel ocities
Ġplan es
Ġfores ts
UT CO
Ġaccession s
Ġdeform ity
C urrently
it z
Ġle th
ĠB CR
ĠR isk
ĠG d
Ġtr acer
Ġprot ecting
Ġnan os
Th rough
Ġleg s
Ġhypothe tical
Be fore
Ġlec tin
R ef
Ġc ada
Ġto t
ver ty
ĠR C
ĠO l
Ġhist ogram
aw ley
oxid ase
ibr ary
Ġear th
Ġosteocl ast
Ġcod ons
avor able
induc ible
Ġenlarge ment
7 00
Q L
g els
m us
u a
Ġpro xy
Ġsh ut
ĠF D
ĠE GFP
Ġem it
Ġpo verty
pos ing
qui red
17 0
Ġmedi ast
Ġpap ill
Ġneut rop
no ise
Ġimmunos uppression
Ġstraight forward
Ġexec ution
ĠPBM Cs
Ġswim ming
Ġacknow led
smok ers
Ġ iliac
Ġh uge
ĠC CA
ĠR AD
ĠL E
ĠL eu
Ġinter ne
ĠK ruskal
Ġend oc
Ġhypot ension
Ġaltern ate
Ġoste oarthritis
Ġoxygen ation
Ġaddress es
Ġdy es
Ġsurround ed
Ġfair ly
w est
Ġc f
Ġw elfare
it ron
ec an
Ġmicro wave
ĠAn y
Ġcross ing
eg ative
HC V
Ġmiss ense
Ġanesthe tic
Ġharv est
Ġlob es
Ġansw ered
Ġfibr ils
Ġaug mentation
vac izumab
Ġinvest ment
E LISA
K a
Ġo ils
or tium
Ġst ems
ĠM u
ĠG old
ĠL Y
Ġsc attered
Ġval ence
Ġform aldehyde
Ġsm ear
Ġtranscri ptom
Ġmal nutrition
Ġcho osing
Ġrib osome
Ġswit ched
ĠMe asure
Ġtun ing
ĠWhere as
obser ver
Ġthrombo emb
C y
L og
Ġw rist
it tle
Ġb rad
op he
ĠE N
Âł bp
ĠG i
end ly
Ġ7 00
ob arb
ĠK im
Ġequ il
Ġinstruc tion
Ġdisp arities
phosphor ylation
F c
T w
ul try
Ġcom ing
01 3
In dividual
Ġtra ditionally
Ġadv oc
aff inity
Ġstabil ize
dep leted
Ġretin opathy
Ġubiquit ous
Ġcigare ttes
Ġinterc ellular
Ġsen ior
Ġvig orous
Ġdiaph rag
ĠE E
âĢī ms
ound s
tim ulation
Ġprotein uria
respon ding
Ġsal ts
Ġtw in
Ġmanufact uring
Ġsusp icion
Ġexcit ability
d on
Ġl id
ĠS k
ĠI CC
ĠP le
ign ment
ath yroid
Ġpol ys
min ister
Ġpost ure
Ġmulti drug
ink age
Ġfail ures
ER S
Ġbio informatics
ĠReg istry
Ġdrop s
Ġren in
Ġcompens ate
Ġimmobil ization
vin yl
Ġbench mark
Ġmenstr ual
' .
) =
G AL
M al
at ched
Ġdis abilities
ĠB V
ĠN SAID
01 8
ater ally
Ġ12 6
ian a
hel ix
az one
ru ker
Ġlas ted
Sub jects
Ġadsorb ed
Ġspectrophot ometer
ĠInstr uments
perg illus
, "
Ġb ull
ĠC RT
Ġ3 000
Ġne arby
Ġund es
Ġser otype
ack son
AT G
Ġaccording ly
Ġcoll apse
lim iting
Ġdeliver ing
Ġpresum ed
Ġinfr astructure
m ale
Ġt ons
en ol
Ġre ver
Ġsh aped
ĠE L
ip ine
Ġind oor
ob acillus
plic ates
Ġgra ding
Ġdown loaded
Ġlit term
oscop e
Ġnorm s
Ġinstr umental
cal c
Ġpolar ized
Ġty ph
MAP K
Ġhydrochlor ide
Ġtryptoph an
S he
c ens
Ġt ear
Ġt rib
Ġt roph
Ġs in
Ġb esides
Ġb illion
Ġth yro
ĠT en
up ling
og rap
ĠL U
Ġlo oked
Ġadj unc
Ġur g
Ġlack ed
Ġair ways
Ġcoup le
Ġchlor ophyll
Ġtit ration
Ġker at
Ġwavel engths
Ġspermat ozoa
ĠGF AP
F ITC
T LR
re ens
ic l
et ts
Ġst ore
ĠT b
ĠT issue
oc onstr
og aster
ĠP ublic
ran si
ĠF E
Ġper mut
ĠD ef
Ġpres ynaptic
Ġsub optimal
ĠV an
âĪ Ĺ
Ġ12 3
Ġ12 7
reen ing
EM I
stit uted
Ġrestric tions
Ġbo ost
Ġspecial ists
Ġsurprising ly
bir th
X T
a P
v olution
Ġp p
Ġp it
Ġst oichi
ĠH G
ys ter
erm an
Ġmac roscopic
group s
Ġminim izing
Ġann ually
ĠDi abetes
Ġtable ts
Ġconjug ation
ĠNL RP
Ġont ology
oprop yl
keep ing
" .
B re
w elling
Ġo val
Ġth alamus
Ġh oles
oc aine
ag le
te br
Ġwe igh
ĠG nRH
Ġdet ox
yd ay
reg ulating
usc le
Î¼ l
bl adder
Ġprote omics
Ġmar ital
Ġsynap se
Ġultras onic
Cons idering
ĠPPAR Î³
ĠClass ification
umer ous
Ġneurom uscular
Ġingredi ents
c ultured
i us
v an
in dex
ter ial
Ġ1 18
ĠP ak
Ġincre mental
Ġdet achment
âĢĻ )
Ġwork er
hel i
ĠTh ough
Ġmig rate
ĠPA H
rolog y
Ġqualit atively
Ġexacerb ation
B ut
I GF
a ver
b rom
f p
at uring
ĠA QP
op en
ĠP ot
Ġpres criptions
anc ers
Ġmicro RNA
Ġox al
Ġrepe tition
ĠCR F
ĠAmeric ans
Ġrank ing
Ġtag s
selec ted
Ġneurode generation
Ġcation ic
Ġmir ror
Effec t
Ġtam oxifen
R CC
uc ose
ad ication
ĠH igher
ĠD OX
ari o
ĠW hether
ĠV EGFR
af enib
Ġlip ase
Ġgu an
Ġprolif erating
Ġopen ed
Ġeffici encies
Ġsupplement al
ĠPh il
Ġnod ule
Ġterminal s
Ġhemorrh agic
Ġcaro ten
Ġcontrac eptive
Ġdiscontin ued
Ġfarm ers
Ġorb it
ĠTRP V
Ġperm its
Ġneuropsych ological
Ġcock tail
G raph
r ons
ĠP os
ĠD TT
ĠK EGG
atis f
Ġlab elling
Ġflow ers
Ġachie vement
Ġorig inate
Ġher nia
Ġdil ated
ÂłÎ¼ l
Ġmicros atellite
Ġposi tives
Ġeukary otes
Ġdismut ase
B u
c old
k es
ĠT ex
Ġ1 12
Ġro se
ox o
Ġover load
Ġprot otype
Ġflow er
Ġconver t
Ġer a
Ġtib ia
ĠPac ific
ĠStrept ococcus
ol ium
Ġas partate
Ġal ive
ab in
Ġdis pos
Ġsh o
âĢī bp
Ġdes ire
Ġbi odegrad
hen tic
Ġgluc agon
pir ation
ĠMed iterranean
Ġthick ening
Ġdraw back
n ull
Ġg amb
ĠF ed
rol imus
Ġocc ipital
imum ab
Ġelectro cardi
ĠAt l
Ġpoly ethylene
ĠQu antitative
Ġwar farin
Ġcomprom ise
M ultivariate
Ġp u
ĠS upplemental
ĠD a
ĠR IP
ĠK u
ise ases
13 9
ĠTh r
Ġterm inus
Ġbre ad
Î¼ L
Ġpublic ly
Ġaccess ory
ĠSe quence
amic in
Ġcreat es
Ġsound s
ĠGL UT
Ġduc tal
lam y
Ġbiod iversity
P t
ul ing
ĠA Es
ĠD B
ĠIn teg
yl es
Ġsp ores
AT T
row s
uter ine
ĠAr c
âĢīh ours
Ġanis otropy
Ġmanif ested
o i
s oluble
Ġt ent
at tern
ul ent
ĠA verage
Ġr ights
ĠF ac
lud es
Ġqu ercetin
Ġconc rete
Ġar ach
âĢĬ .
ĠY oung
ST R
Ġneuro blast
Ġrest rain
Ġaden oma
inflamm ation
Ġadjust ments
ĠAb cam
Wh at
Ġpup s
Ġscal p
Ġconscious ness
Ġthous ands
odg kin
F M
H u
L eu
P CA
c s
j u
og roup
und er
ĠB en
ĠB ritish
Ġk il
acter ium
Ġtechn ological
havi oral
Ġsal v
Ġsuper im
Gl c
P red
b ul
Ġv ice
ĠH ow
yl ene
Ġwork place
Ġdiagnos ing
Ġconsum er
Ġcarbon ate
Ġer adication
Ġpathogen icity
Ġau x
Ġunp ublished
ometh ing
Ġdendr ites
Ġfruct ose
/ ).
in oc
et ting
ĠT arget
Ġcont emporary
ĠE PS
Ġco operative
Ġme g
Ġmic elles
Ġsp anning
cer n
ron bach
Ġoper on
Ġalg ae
ĠTr p
Ġequi val
ĠPK A
Ġdescri pt
Ġmonol ayers
Ġplas min
Ġmand atory
ol ith
ab dominal
ĠM ulti
ĠH em
Ġinf l
and emic
ĠW B
Ġsp acing
Ġar res
ric tion
Ġrem ed
Ġtr acts
Ġiniti atives
Ġresid ential
Ġnan ofib
200 4
Ġdil atation
Ġhis tidine
Ġextrem ities
ophosph amide
Ġperturb ations
Ġquar ter
Ġsept al
Ġresili ence
Ġuncontrol led
H ER
n l
v ille
Ġst ressed
res istance
ĠP SI
ph y
ĠE valuation
ĠG G
Ġall ograft
Ġsp ir
rec ogn
Ġinvestig ator
opath ies
Ġgran ule
ash ing
Ġaccel erate
athe red
Ġpreferen tial
Ġherb iv
Ġbeg ins
/ (
A BS
D is
E r
F low
Q TL
es te
ĠF GFR
iz ers
por ter
ĠE Cs
Ġmod ular
ĠW S
per itone
ne x
Ġver ification
ĠPh osph
ict or
EL L
Ġhaem orrh
Ġnod al
Ġdepolar ization
Ġreperto ire
Ġcerebro vascular
A ut
it ative
ĠT et
Ġde hydration
ĠIn vitrogen
ĠL ake
Ġmeas urable
Ġmethod ologies
Ġcr yp
Ġfl ood
Ġâ ĨĴ
Ġsw allow
pr int
Ġdiscrim in
Ġattr acted
ĠFI SH
ĠStatis tics
ed u
om nia
Ġst ores
Ġis other
ĠA CL
ĠF ab
ĠB CL
ĠN HS
01 4
Ġy r
ĠK ar
Ġcyt ology
tis sue
C al
r one
Ġp als
Ġb ird
op his
ĠR b
ĠR us
ĠL O
Ġk Hz
ens able
Ġ19 84
Ġsyn t
ind ic
Ġ13 1
Ġmar ried
Se ven
Ġcytos keletal
Ġrequ ested
ĠME K
Ġdest abil
Ġconce ption
ĠFR ET
Ġglucocortic oid
Ġcannab is
D o
H DL
Ġd educed
Ġst ones
Ġde oxy
ĠH H
Ġexp anding
Ġnot es
Ġco valent
Ġsp i
Ġcal f
ov sk
14 7
Ġbro ken
ĠIFN Î³
Ġexpect ation
Ġtheore tically
0000 0000
Exper imental
Ġbab y
glycer ol
Vari ous
Ġprostagland in
M ut
p rec
ore tic
ĠD own
ĠN ET
ĠN umber
ost rid
Ġpl acing
vid ed
ĠÎ º
Ġser otypes
iv ac
Ġev olving
iqu id
Ġparamet ric
Ġangi ogenic
Ġsequ entially
Ġpunc ture
Ġinher itance
Ġparal og
ĠProv ince
E vidence
c ast
Ġc u
ro ids
Ġcon str
ak o
ber ry
Ġpo ultry
Ġtra ine
Ġcertain ly
Ġchromat ographic
Ġfall ing
Ġplan ar
Ġaberr ations
Ġencaps ulated
Char acter
administ ered
R N
U p
V S
i tional
Ġre acted
st and
Ġres erve
Ġr acial
ran dial
Ġcor ner
Ġun iqu
Ġsp heres
Ġaut opsy
art z
Ġoff icial
Ġfluores cein
Ġhy al
Ġcapac ities
Ġhum oral
Ġsuperv ision
restr icted
T iO
it an
Ġd odec
ic ine
om ide
Ġv or
od om
op rol
ĠS ingle
se vere
enc l
ater n
Ġpost ural
15 2
ĠSt age
Ġmal formations
omet ers
Ġoste oblast
Ġcompet ent
ĠME AS
Ġrot ational
Ġphotoc atal
Ġirrig ation
Ġphysic ochemical
C alc
H ence
v ated
ç »
Ġc as
Ġrel ap
ĠX en
Ġagg ression
ĠPh ysical
Ġattrib ute
Ac ute
Ġtoxic ities
Ġquad rup
Ġpi eces
Ġever yday
O CT
Ġ erg
in ities
or um
Ġb im
Ġh it
ĠI G
Ġat tained
ge vity
ĠL im
01 7
str ate
art an
AT CC
Ġmat urity
Ġnan ow
Ġblock ers
Ġsaf ely
Ġolig omer
Ġtet racycline
Ġown ers
Ġultim ate
ruct ures
Ġneuropath ic
d oor
f ession
v s
im urium
ow ledge
ĠH K
Ġdis ordered
ĠF N
Ġne ovascular
ĠN ano
Ġsub scale
lu ent
velop mental
Ġout liers
Ġfound ation
ful ly
16 5
Ġnucle ation
Ġvers a
ĠCA M
man agement
Ch ildren
Ġcatal ysis
Ġoutput s
Ġsequ est
rig el
aceu tic
ĠMal ay
Ġsubcutaneous ly
ĠPan el
Ġstir red
A X
B SA
p ain
Ġc ard
Ġh orn
Ġg aze
ĠC EA
ĠM U
ign ant
Ġdist ortion
Ġimmun ogenicity
Ġgra vity
Ġprogram ming
Ġhel ical
Ġhomolog s
Ġophthal m
ĠHMG B
b B
c ost
m u
u ated
on ed
Ġp mol
at en
or tical
Ġb uc
ig inal
Ġpro kary
Ġv ial
ĠA MI
Ġbe ad
se quencing
Ġhe red
ĠO V
ĠJ ohn
13 4
Ġcontr asts
Ġsw ine
lectr onic
omorph ic
ĠCam bridge
Ġalumin um
ymet rix
ĠEthi opia
Ġtot ally
C CT
W F
m TOR
p regn
s urgical
at ching
Ġre activation
ot er
op res
Ġde hydr
Ġab st
Ġsc ram
Ġ12 1
Ġpri v
Ġneuro endocrine
ĠMS M
Ġtherm odynamic
Ġaccept ability
Ġleg is
plate let
Ġlact ation
Ġthor ac
Ġvolum etric
ĠExper iments
het amine
2 05
å ı
Ġc ath
Ġp acing
or ial
Ġb old
os tics
Ġex chang
tr im
ex ual
pos ity
Ġmicro f
ensi tization
ĠCh rom
Ġintra ocular
Ġsens ation
orb idity
Ġphosphor yl
ĠMD D
SC US
Ġhepat ocyte
ĠAF M
Ġtag ged
Ġopi oids
Ġderm atitis
Ġintram uscular
Ġesophag us
Ġpestic ides
Ġefficac ious
H PV
Ġa eti
er ad
Ġh am
em ploy
Ġcomp ares
ĠH ar
Ġcont rain
âĢī nM
ĠU g
Ġbi ologic
Ġmon omeric
cent ered
Ġ13 5
Ġaim ing
Ġmuc us
Ġmelan ogaster
Ġnanoc ompos
ophis tic
M in
O RT
Ġc ages
as tically
Ġ( %)
el ae
ĠT s
ĠE g
ĠO VA
Ġsc aled
ĠV ol
Ġpolym eric
Ġinst ant
ĠPre vention
Ġconce ived
ĠBel g
Ġsyring e
Ġmicroflu idic
Ġt ill
Ġs port
or ax
it ated
ĠP ositive
Ġde aling
ug g
ĠL in
reat er
Ġanal ytes
Ġall ogeneic
Ġobser ver
Ġcharacter izing
Ġsol ving
ucle in
vere x
ĠSc hematic
ĠAD C
Ġax illary
200 3
56 2
GG T
immun oprec
Ġepilep tic
crip tive
Ġnoc ic
ĠNiger ia
. ;
A AG
S ah
d f
is ations
Ġv oice
ĠS r
ĠP AS
Ġinc ontin
Ġall erg
ĠV S
emb edded
Ġcap ill
Ġpul sed
Ġtop ological
Ġcent rom
ĠEn viron
ĠSp rague
ĠAL L
Ġpolyp s
idi rectional
Ġarrhyth mias
pine phrine
Ġpals y
g ut
Ġt a
ĠS AP
ĠP art
ĠP rac
ĠM ix
Ġsp iral
Ġout growth
âĪ Ĩ
Ġconf id
Ġcare er
ocy steine
Ġdecl ines
Ġinterpre ting
Ġsuic idal
Ġquar tile
Ġsubpop ulation
H a
as ant
Ġth ings
ol ig
ĠB ro
âĢī p
alth am
Ġaut hentic
Ġmor al
Ġhospital izations
Ġsupp ressive
Ġaff erent
Ġchlor oform
ĠSecond ly
Ġelong ated
cha emic
Ġhall mark
Ġfavour able
Ġcran i
Ġrelig ious
Ġneurotransmit ter
F uture
I CD
P LA
n ov
s en
x iety
Ġs omething
Ġl avage
ĠP MA
ies is
ail and
oid osis
Ġtr is
Al a
Ġsal mon
Ġur ic
Ġassemb lies
Ġadvantage ous
Ġmorphological ly
Ġconjug ates
Bs Ag
tem perature
meas ured
cit abine
Ġperiodon titis
e at
Ġs av
Ġc admium
ac ity
ĠM EG
ĠM illipore
ĠB CG
Ġco res
hel d
Ġphot osynthesis
ĠCT L
Ġâī Ī
Ġinterp ersonal
ĠmTOR C
Ġvic inity
Differen ces
V R
os m
os ylation
um bers
ĠS ep
duc tive
ch arge
ĠL ondon
Ġreg imes
Ġund ifferentiated
Ġacc ident
Ġdef ines
ĠAn nexin
Ġlymph aden
ĠSe a
Ġent ries
Ġsoci odemographic
Im portantly
Ġoffer ing
aceutic als
T ables
l ay
Ġc ing
ati zation
ut ter
ĠM art
ĠE SI
Ġ19 70
tex t
(- )
Ġattenu ate
otin ib
Ġendometri osis
Ġretard ation
A RT
I E
f illed
o zyme
r pm
s us
y rene
id is
Ġcon stric
ĠA O
ĠA k
ĠF unctional
ĠR u
Ġdi ploid
Ġrec re
01 6
Ġcomple ting
Ġinser tions
ĠLi u
Ġren ew
Ġhor se
Ġhundred s
Ġcataly zed
Ġunf avorable
oglyc an
Ġubiquit ination
Ġobst etric
Ġst atins
Ġex it
ore pinephrine
ĠL u
yn chron
Ġhydro gels
Ġhead s
ophag y
ĠLe e
ĠSub jects
Ġbic arbonate
Ġdot ted
erad ish
h ang
m ain
ed ema
Ġc rown
om ically
et u
et tes
ĠM aster
ĠF K
ox etine
Ġapp ra
Ġlong est
co hol
osa ic
Ġste ep
Ġbelong ed
Ġtun nel
Ġtor que
E K
m n
Ġn ond
et ent
ag glut
ĠP al
Ġat ax
Ġtrans c
ĠW ind
Ġpot ato
Ġmicro arrays
Ġprim ates
Ġpost p
16 3
Ġmy ocytes
Ġsu itability
Ġseg mental
âĢ¯ <
Ġhy brids
Ġdil ation
Ġepid ural
Ġconven ience
ĠAr ch
Ġadi posity
ĠDi rect
Ġsed iments
Ġbeam s
Ġcollabor ative
Ġrough ness
Ġdent in
agg reg
Ġtick s
Ġbif urc
ishman ia
ĠFound ation
B N
i aceae
Ġs ing
Ġs ophistic
an in
un ch
ĠC ore
ĠP en
ĠM eta
ĠD ig
Ġint ran
ĠO M
Ġser ological
Ġhist opathology
Ġhand le
Ġimm ersion
Ġexplan atory
ĠGraph Pad
he im
ĠS u
eren tial
ĠV E
Ġsec ure
amet er
14 4
Ġj ump
Ġcr isis
Ġcolon oscopy
Ġprop ofol
Ġste atosis
ĠHR QoL
Ġcovari ate
ymer ase
Ġduod enal
Ġnavig ation
M ale
Ã ±
ic ations
Ġg amet
ĠS LC
Ġdis h
Ġad minister
iven ess
Ġfac ing
Ġindex es
Ġaden ine
Ġdefici encies
osp here
ĠNor way
Ġtit le
ni h
Ġeosinophil s
Ġsph ing
C NTs
E th
a emic
m t
et nam
Ġl ose
ati te
ĠC CD
ĠM b
ĠH PA
ĠW ol
so ft
rap eutic
ĠAs pergillus
till ation
Ġinhal ed
amil ton
TRA CT
Ġlon gevity
ĠCro hn
PAN TS
Ġrevascular ization
Ġorthog onal
Ġthrombocyt openia
T ogether
d c
or r
Ġl amb
Ġg athered
ĠT UNEL
Ġrel ates
Ġdep ended
Ġend otoxin
Ġdem yel
Ġtest es
ha o
ek ing
Ġstress ful
Ġincub ator
Ġspect roscopic
Ġwor st
Ġtw elve
Ġonc ogene
Ġelect rosp
RTI CI
Ġgyn ec
B W
S ingle
d em
Ġt ips
ic an
ul ic
st h
ĠS CA
Ġpre re
ĠB ody
Ġint akes
ary l
ĠW OR
Ġstand s
Ġel bow
Ġsu ited
ĠUn it
Ġnec ro
Ġstri atal
Ġsymb ols
RTICI PANTS
Ġs lud
Ġp andemic
am id
oc ysts
ĠD ES
ĠR L
ĠG ATA
Ġpl ain
pro portion
Ġph ages
Ġpol ysaccharide
Ġes ters
sc an
ĠY AP
Ġrepl acing
ĠHR V
ĠNAD H
Ġaug ment
Ġlib itum
S n
W estern
a a
b rile
w ar
st one
Ġpar athyroid
01 9
de oxy
Ġcontr act
Ġpsych otic
Ġdri ves
Ġvit re
Ġsept um
Ġcorticoster oid
Ġcondens ation
kappa B
H CC
P ath
b ed
d T
Ġs keleton
om ethyl
Ġh ots
ĠT SS
ĠP ap
ĠE PA
val idation
Ġmin ing
Ġins ignificant
Ġfl o
Ġfail s
Ġpass ing
Ġoccup ation
Ġclinic opathological
ĠCB F
Ġdest ro
ĠSm all
Ġshorten ed
Ġdisadvant ages
onom ous
ucl ide
SCUS SION
S W
T EM
u istic
Ġl atit
ab out
op ress
Ġsh aking
Ġwe alth
Ġco exist
Âł Hz
ĠG enetic
Ġremain der
Ġsubstit u
iltr ation
Ġrow s
Ġadapt ations
Ġneo adjuvant
phag ia
G enetic
R a
g ated
m ode
Ġp T
Ġn ose
Ġcon ve
st rain
ess el
ĠU b
Ġdise ased
ron t
ha ve
14 9
Ġel usive
26 4
Ġblock er
Ġread ings
ochond rial
Ġx anth
RS V
Ġparad ox
Ġdissem inated
health y
stud y
avid in
Ġsalv age
ivac aine
M eth
s l
Ġst ations
ce ived
âĢ ³
Ġv in
ĠA h
Ġab rog
oph aryngeal
Ġpat ent
Ġquantif ying
ĠAc tin
Ġure ter
Ġanc ient
Ġsynchron ization
. -
n ucle
Ġt ang
in ety
ti zing
Ġm erged
Ġd a
om otion
up s
og le
ĠP red
ĠV T
15 4
Ġele mental
Ġsecre te
Ag ilent
Ġwarm ing
Ġbab ies
Ġwilling ness
Ġaeros ol
) ],
Ġm ult
Ġl aryngeal
od i
Ġim posed
ens ors
ser v
Ġperform s
CR T
Ġep ic
Ġlymph omas
itu ximab
Ġcontamin ants
Ġchron ically
Ġtach ycardia
c ale
j o
k B
Ġt read
Ġw ent
ĠT CA
ĠS CD
ĠI l
ĠP ED
ĠG DM
Ġsup ine
Ġcomb ines
AL L
ĠCO L
Ġbiom echanical
Ġbackground s
ÂłÎ¼ L
Di agn
ĠLik ert
Ġembol ism
Ġintellig ence
Ġreprogram ming
Americ an
B CL
b est
Ġ %)
Ġbe et
ĠF AS
Ġrec urrences
Ġsp ines
Ġli e
Ġpo le
Ġ19 83
Ġneur ite
cl amp
bl asts
ĠOn c
otrop in
Ġcathe ters
âĢīÂµ M
Ġperox is
Ġpromp ted
Ġquen ching
ABS TRACT
on ium
Ġthe ta
Ġ( ),
os om
Ġfor aging
ĠC PR
ri an
ri age
ĠD iseases
ĠN GF
Ġinter conn
ĠW C
Ġcoun ty
Ġcle ared
Ġcarri es
Ġdispl aced
Ġmorph ogenesis
trans criptional
Ġclar ity
Ġtryp an
Ġasc ites
Ġxen ografts
ruct ural
UTCO ME
S al
Ġc row
Ġh s
ig ration
ĠD iff
ĠE X
Ġun equ
cent er
Ġfraction ation
ĠAL K
Ġspl itting
ĠMid dle
Ġdiam ond
ĠEduc ation
Ġdere g
Ġconstr ued
Sah aran
Ġincontin ence
) âĢĵ
um en
og ue
ĠV eter
Ġimp ression
Ġhist ograms
io let
Ġ13 7
Ġread ers
rin ted
hol der
Ġreason ing
Ġpel vis
ĠGu id
Ġju ice
Qu antitative
ĠTex as
L H
S ystem
Ġt re
Ġm ist
ur an
am ins
Âł 9
yl ogenetic
ever se
Ġ12 2
Ġ12 4
Ġep ist
ull ary
Th r
Ġfat her
Ġpoly acrylamide
Ġoste osarcoma
ĠSh ort
Ġstabil izing
âĢīÂµ g
Ġultra violet
lys ine
Ġhered itary
e h
Ġp aternal
Ġm Abs
Ġis omer
ĠC OS
Ġcont acted
Ġco he
ĠW altham
Ġli vest
Ġmechan ically
Ġins oluble
ĠJ A
Ġpe ers
tro duction
Ġintr igu
Ġbr ack
Ġdraw ing
Ġpac em
phosphor ylated
Ġortholog s
Ġlivest ock
d y
t age
u ish
Î ¸
ol ia
yp sin
âĢī K
Ġmon key
Ġcontinu um
Ġrecogn izing
Ġolig omers
ĠInstit utes
ĠFirst ly
prot ection
ev oked
Six ty
Ġcapill aries
Ġslud ge
0 24
2 001
Ġs an
om m
ĠT rich
ĠI MP
ĠN ov
Ġap nea
Ġk iller
Ġdisc s
Ġaden omas
Ġconstit uted
Ġinterf acial
Ġdecl ared
ĠMP a
Ġphospholip ids
ĠPBM C
verex pression
f acial
ĠA H
Ġres veratrol
ĠM UC
Ġcomp any
ĠF DG
ĠB et
ĠE co
Ġsub clinical
ĠO lympus
ym p
Ġrep ressed
Ġ19 82
orb id
Ġcry opres
Ġaff inities
Ġneutral ization
Ġsem en
ĠPol y
Ġnic otin
V E
Ġb er
Ġb ank
ere mia
Ġcon dom
Ġbe vacizumab
ri er
Ġinc on
ĠH an
Ġdis ab
Ġob sc
Ġqu it
Ġmeth ane
Ġcompar atively
15 9
fer red
Ġcop e
selec tin
ĠCN V
ĠGABA ergic
ĠTri als
Ġnoc t
Ġbiotin ylated
in ence
is al
ĠT yph
Ġnot ing
ĠL ight
Ġgroup ing
ici ally
Ġapp eti
17 5
Ġtyp ing
Ġrepro duce
stim ulating
Ġprecipit ated
Ġvox els
Ġbreed s
rex ate
C ys
Ġp aw
Ġd ates
Ġal titude
ĠS NR
ĠI CAM
Ġcell ul
ĠH ispanic
ĠV R
Ġchem il
Ġdim ensional
ĠAg ency
Ġpen al
ĠMT X
Ġclean ing
ocyan in
Ġjus tif
Ġunderestim ated
ĠACT H
Ġneutrop enia
Q I
c n
p rep
an ch
Ġm A
ot rexate
Ġcon sequent
Ġis otype
ĠA SA
Ġbe es
ĠB ank
Ġqu ies
ex tr
Ġrepresent atives
of ect
An d
ochem ically
Ġher ni
Ġdon ation
Ġbase ment
ĠGen erally
Ġaver ages
Ġintern et
Ġcaps id
F unctional
G AP
U RES
d B
t emporal
Ġ Ã©
Ġs ectors
Ġp ale
it oring
Ġf ing
Ġl anes
il ization
ĠS ing
ĠS ample
ag inal
Ġcor al
Ġinv ent
Ġ19 81
erg ing
ĠCl uster
Se e
Ġveget able
Ġglycoprotein s
word s
g ly
v able
ĠT n
Ġpos es
ĠU L
Ġfol ds
Ġhyp other
18 1
Ġstandard ised
ĠQ OL
ĠEx amination
uct ural
Ġrob otic
Ġrh od
tet ra
centr ation
ĠTRA IL
K I
P ur
o o
Ġp ine
Ġre w
ĠN ur
ren al
Ġacc lim
ĠK ir
Ġrep ressor
Ġpol yn
Ġra ising
Ġev olve
Ġflow s
rim idine
Ġtub ulin
trans plant
ophil us
Ġpack ed
Me asure
with out
Ġflux es
Ġcasc ades
Ġanthrop ometric
deg ree
Ġerythem at
ĠKen ya
Ġsemic on
B ar
V i
c le
c ut
d ynamic
l asting
Ġo mitted
ic it
Ġv oid
Ġ1 13
Ġ1 14
ĠP RI
Ġdis cern
ĠF re
Ġper mitted
ĠB or
ĠE Z
vi ties
ĠK a
ĠV isual
âĢ² ;
Ġsil ent
ĠCR EB
Ġimpair s
olip oprotein
Ġinoc ulum
Ġanomal y
Ġcontrad ict
H LA
S NPs
c her
g est
o al
in el
re ted
Ġo mega
it ely
as er
ar rh
ĠT CGA
ot ted
Ġbe ar
ĠS pect
ĠD ul
âĢī kg
Âł Âł
NA C
Ġmicro plate
Ġsol itary
Ġaut onomy
io tics
Ġ13 3
Ġhom ogenous
AR S
Ġaltern atively
oxid ation
ED s
ĠPl asma
Ġclim atic
DI SCUSSION
Ġoscill ation
Ġgon dii
Ġfo am
Ġa ven
an ed
ĠG FR
ie ties
15 6
âĢĿ ).
Ġinterven tional
Ġhel per
Ad j
ĠPh ys
ION S
Ġfresh water
Ġcorne a
Ġsediment ation
Ġswe et
Ġeuthan ized
Ġmicrosp heres
L ip
Ġ ip
uc osal
ĠM us
Ġch itin
Ġper iv
Ġsup posed
Ġhyp erc
Ġpol ysaccharides
Ġrece p
19 0
con trast
Ġpur ple
ĠUn ivers
Ġcoll ateral
Ġpack ing
Ġpreced ed
Ġgall bladder
sur face
Ġneuroblast oma
Ġsophistic ated
ĠWOR DS
re activity
it ating
Ġd amp
ĠS elf
ĠB PD
ĠG AB
Ġchar ts
CR C
ĠY ang
Ġcross ed
CI S
IN K
Ġmid w
Ġaltern ating
Ġprost atic
ik on
com ponent
IR S
ĠSm ith
syn uclein
catal yzed
Ġinterne urons
d emographic
h ard
Ġp age
ur us
Ġst raw
uc ine
ĠI BS
ĠH al
Ġper mission
ĠE vidence
Ġit erative
Ġam ide
Ġassoci ates
uman n
Ġconsid ers
AP C
Ġradi os
PD B
Ġorient ations
ĠSpec ific
Ġsent ence
thromb in
Ġallerg ens
f oot
k ingly
Ġst ents
ĠH ong
ĠB re
ĠN ucle
Ġsub family
Ġspec ulated
ĠV TE
air s
cl usive
ĠMed ica
ĠBi om
Ġjud ge
Ġthi ol
Ġborder line
bec co
ĠFin land
Ġo est
Ġf un
ĠT em
Ġex ud
ĠP IP
ore al
ĠB ars
ĠR G
Ġco at
Ġmet ac
velop ed
Ġout line
Ġspecific ation
25 1
opl asts
Ġintro duc
Ġshif ting
ĠPC OS
Ġpal mit
Ġcrystall ization
Ġauthor ities
Ġamb iguous
ĠSU MO
ĠVi etnam
Ġreconstit uted
Ġsar cop
S upplemental
ed s
Ġf en
il in
op ause
Ġcom ment
ĠF actor
yp ti
ĠN GS
ĠO ct
ines cent
Ġconf usion
ĠZ IKV
Ġinflamm asome
Ġday time
rest rial
Ġfragment ed
Ġarg ument
Ġimmunomod ulatory
P os
Ġs a
ul se
ac Z
Ġh sa
Ġv on
ĠS SR
Ġac qu
Ġat opic
ĠD FS
Ġinter quartile
Ġall oster
Ġmeth an
Ġend urance
Ġj aw
Ġextr insic
Ġfl ash
oper ated
Ġhom ozyg
Ġdys lipidemia
Ġrecogn ised
Ġquantit ation
Ġbran ched
Ġcoch lear
D awley
Q C
u ing
ti i
Ġn ail
ĠC CT
Ġdis k
ĠF B
âĢī 9
Âł [
Ġpl ug
Ġrec ap
ach i
err ing
ER V
Ġshort est
Ġalong side
Ġcost ly
Ġspecial ty
ash i
Ġhemat ological
ĠCC K
Ġcycl ophosphamide
Ġquad rant
ĠCoun ty
Ġtrabec ular
Ġuniqu ely
Ġintrigu ing
P FC
X LS
b etween
f ri
n ar
Ġh us
id ol
Ġv ent
ĠC AS
ĠA uth
tic a
pl us
Ġass imil
Ġco bal
Ġinf ect
Ġsp acer
Ġappro ached
Ġend ovascular
tig raphy
18 7
Ġrele asing
ĠCh ronic
Ġcardi opulmonary
Ġconn ect
Ġassum es
Ġlys osomes
Ġolig o
Ġmaintain s
arr ant
Sc an
Ġfluctu ation
Ġsomat osensory
fram e
c oun
d t
y ellow
Ġf eces
Ġ( âĢĺ
ĠM ul
ĠH V
ĠD u
ĠL ibrary
Ġmechan ics
DS S
Ġhist ories
aren ts
Ġwild type
Ġher itability
Ġphysiological ly
Ġfav ored
Ġdy ing
Ġpersonal ized
Ġuncertain ties
UN CAT
glut amine
Ġsugges tions
Immun ohist
Ġds RNA
aud i
ofect amine
I ll
d oc
in ten
Ġs onic
ad ministration
Ġcomp ressive
Ġpre operatively
ĠB eck
ĠR ob
ĠL et
Ġreg ister
Ġam n
Ġout per
Ġins omnia
Â° .
20 2
Ġpur s
Ġfac ed
Ġ17 0
Ġhelp ing
hy brid
ĠOr th
Spec ific
Ġdimer ization
Ġmitig ate
Ġpluripot ent
Ġmigr atory
M HC
d ist
â ģ
Ġre ass
ĠS urgery
ĠI B
Ġne oplasia
ĠG PCR
Ġover w
yc ycline
Ġver b
âĢ² ),
Ġcontinu ity
Ġir rit
utri ent
Ġtoler ability
Ġoverl apped
ĠRA W
ĠSP ECT
Ġaud i
Ġtable t
ĠTR UNCAT
Ġsib lings
ĠSac charomyces
Ġpoison ing
ĠTRUNCAT ED
A E
N ine
a el
Ġs ul
Ġh i
os amine
im ide
ĠT V
ĠT AC
ĠI CA
ĠH yper
ĠB K
Ġint u
Ġam en
plic ating
Ġpo inting
ĠTh ailand
Ġdeg rade
Ġep och
ĠProtein s
tox in
Ġbund les
Ġnick el
F orm
æ ľ
as hes
Ġn orepinephrine
Ġg h
Ġv imentin
ĠP he
ĠF H
ĠF AK
Ġtrans it
pon in
Ġcar go
rel in
Ġmin us
SA S
sc ores
ĠRe ference
ĠAD AM
ĠAT M
Ġpack aging
Ġec ology
Ġmeet ings
Ġmyc el
Ġdisadvant age
Ġgent amicin
Ġinhab it
3 50
G TP
Ġs om
ud in
Ġr im
ĠN LR
ugh t
Ġout flow
Ġcyt ometric
Ġz e
Ġbar c
lor o
hal f
pi red
este em
peritone ally
Ġvor tex
D ef
H CO
M at
T yr
a er
it ness
Ġm as
Ġ( ,
Ġis chaemic
ĠC AC
ir teen
Ġr ac
ĠM ental
ĠF us
Ġdes orption
Ġobser ving
Ġsim plicity
Ġmicro RNAs
16 6
CI D
AR s
Ġtop ography
ĠBi ological
Âłh ours
Ġpossess ed
iaz ep
Ġscrew s
Ġanticoagul ant
sour ce
renew al
w in
in ducing
on n
Ġo ss
Ġc rest
ac a
Ġl umin
ĠH s
ĠD em
ĠB PA
Ġme als
Ġreg urg
tr as
ll er
24 0
ĠPC V
Ġgr ating
Ġcycl ase
E t
M N
m embrane
s olid
Ġa a
Ġw arrant
Ġm osaic
ĠC ur
ĠC urrent
ĠC ulture
ĠS UV
ag onal
Ġpre eclampsia
Ġwe aning
Ġmo ieties
37 5
Ġtend er
Ġchlor oplast
ĠLe ishmania
mod erate
Ġframework s
Ġhaem oglobin
Ġnever theless
Ġtel omerase
Ġbon y
local ization
Ġdecomp ression
Ġcontribut or
H er
J un
S w
Ġp auc
Ġto lu
Ġres emble
val id
Ġins et
cop e
16 8
Ġappear ing
Ġprote olysis
Ġelim inating
Ġancest ry
Ġsilic one
ĠVari ous
ĠPe ople
Ġembol ization
Ġgem citabine
Ġaccid ents
Ġfrail ty
fession al
C NS
F indings
M ice
m olecule
in ite
Ġp ie
si ties
ĠS iO
og e
ĠF amily
Ġinf requ
pro te
ĠQ ue
ĠPA I
DL INE
Ġconstant ly
Ġcomputer ized
Ġdisturb ed
Ġarrhyth mia
ĠServ ices
Ġdens it
Ġbus iness
Ġcylind rical
Ġrif amp
0 23
C ase
s n
re ase
ed ding
Ġre actor
ĠA v
ĠM en
ff ee
Ġim ported
Ġen cl
Ġinf used
emb ran
13 6
Ġterm inated
ish ment
On ce
Ġmil itary
Ġcircum f
Ġvas oconstr
Ġget ting
rele ase
Ġincons ist
Val ues
phot on
Ġtread mill
S ummary
Ġt itr
Ġg ad
ĠA AA
ĠM IP
Ġdr astically
ĠCl inic
Ġsynthe tase
aro tomy
Con sequently
Ġmarg inally
Re view
Ġsynchron ous
Ġinver tebr
Ġtor sion
Ġcovers l
ĠMAL DI
D MSO
in et
Ġs ink
Ġl ytic
Ġg ift
ĠT rial
ĠI CH
Âł ms
ep id
Ġsc ene
Ġindividual ized
19 9
bo ard
com plex
Ġperce ive
Ġhyd ration
ĠAL P
immun ity
Ġoppos ing
lect omy
factor ial
nit ine
Ġvill ages
mac roph
E q
M it
P W
S DS
d il
d ry
h um
s ym
Ġe cc
if era
up l
ch ild
Ġint ent
ĠO pen
ard less
Ġar yl
Ġneg lected
Ġhyper polar
Ġplay er
Ġdeli rium
ĠNa OH
Ġgenomic s
Ġimm ersed
Ġinfiltr ating
Ġinnov ation
Ġnom inal
ocor tical
S anta
f ect
o ul
Ġs ure
Ġm oney
Ġg ang
Ġ2 20
th ing
di bular
ĠH om
Ġmeas les
ov erex
20 6
Ġproduc tive
ĠCI s
ipher al
au er
Ġmuc in
xt ran
bal anced
Ġsequ elae
ĠEth ical
Ġmotiv ated
Ġlamin in
Ġexacerb ations
Ġhors eradish
Ġlen tiviral
Ġpropos al
R V
d in
ic ul
el astic
Ġg rip
Ġr am
ĠR oche
tiv irus
âĢī SD
ĠG PR
ĠW ater
enc oding
ĠO X
ĠU SP
rel ative
17 4
Ġcr ack
ĠCh anges
Ġdiss imilar
rem ia
Ġov aries
Ġsugges tion
Spec ifically
Ġduc ts
ipro floxacin
Ġamput ation
ĠAtl antic
Ġdodec yl
M ap
R em
Ġs ong
Ġm akers
ur is
Ġst ack
uc ture
up per
Ġse al
ĠD BP
ĠN MD
Ġinf ancy
ib ly
val ently
ĠW u
ĠK e
Ġra b
Ġthrough put
15 1
Ġlocal ize
Ġelev ations
Ġenter ic
Le vel
Ġens ures
net work
Ġwr ong
Ġexpir atory
ĠDul becco
+ +
H yper
s ensitivity
Ġs es
ĠT HP
st re
st ar
ain t
ch ol
ap onic
ĠU s
Ġcal ves
Ġmicro structure
Ġoper ators
Ġphot ographs
ED TA
ĠAp p
Ġsubstit ute
bre eding
Ġopportun istic
Ġlangu ages
Ġaliqu ots
ĠMt b
Ġchaper one
Ġisofl urane
Tw elve
Ġo zone
id ym
ĠH amilton
Ġle ct
gen es
28 0
Ġpneum ococcal
Ġmicrobi ological
Ġrhyth ms
ĠRho A
Ġchemot axis
L Y
M ic
w orth
ol uminescence
os i
Ġis op
ĠP CS
Ġch oline
Ġim plication
Ġsh ares
ĠF ast
Ġinf est
inc ubation
ocyt ogenes
Ġcontrast ing
Ġprost hetic
Ġalco holic
Ġmanufacturer s
Ġfore arm
Ġveh icles
Ġepidemi ologic
ĠÃ ł
cons uming
Ġphe rom
M F
in ces
an ese
os itis
ĠA e
ĠI E
Ġim plied
ĠH ill
ĠB ox
ion ized
hem e
Ġprot ons
ses sion
OR F
Ġintra peritoneally
ret est
Ġelectro por
Ġcry o
off s
Ġana emia
Ġsn ow
isting uish
Ġconstitu ent
Ġanch or
Ġattend ance
Ġvill age
W il
b on
re perfusion
Ġc itr
Ġan ions
or in
Ġd aughter
Ġh ttps
Ġg ames
op tic
Ġgro ove
ĠG AL
ep tin
ĠO UTCOME
ĠU TR
Ġrem n
ll a
Ġnormal ity
Ġprob iotic
of en
bi ological
Ġplant ar
48 8
Ġpor osity
ĠAp plied
ĠAb out
sub ject
Ġabstr acts
ĠDiagn ostic
Ġhumid ified
b ing
v anced
at able
us hed
si RNA
tic le
Ġ2 30
ĠP PV
Ġinc is
Ġdis proportion
Ġmod elled
Ġar t
Ġfe et
ha zard
Ġwork load
abil istic
ĠCS Cs
Ġharv esting
Ġstere ot
Ġchol angi
Ġfulf illed
mid dle
A bbreviations
C hen
P rior
g ia
Ġl actic
Ġ2 80
em oral
qu ad
Ġle x
ĠB angl
ĠG rade
ast uzumab
Ġpr on
ten ess
ock s
hel in
Ġsl opes
Ġsl iding
ru it
Ġintra uterine
Ġoff ic
ĠIV F
rog ram
Ġvirul ent
Ġreferr ing
ĠFL AG
ĠNeu ro
Ġstrengthen ing
ĠMark ov
Ġnemat ode
Schem e
c ognitive
l ers
t rial
Ġs pro
ic ide
Ġe NOS
ot ri
ĠC NT
pl ot
ap t
ast ro
Ġsub class
ĠK ong
reg ulates
Ġexpl ants
struc t
Ġmen isc
Ġtransl ate
Ġsem inal
Ġprov inces
Ġlipoprotein s
âĢīÂµ m
hydrox yl
Ġconflu ence
ĠWind ows
opress in
S N
e V
l oss
Ġs g
is ters
Ġd b
oc rit
ĠM AC
Ġad ver
ĠB rown
ĠE CL
Ġsub mission
Ġconf ers
Ġocc as
Ġprim e
Ġacid osis
Ġfe brile
17 2
Ġu ve
bl ood
AL S
Ġunc over
esthe tic
ĠRO Is
Effec ts
ĠDiagn ostics
Ġamp icillin
Ġveter inary
adem y
Ġiter ations
ĠMedica id
i as
ec tious
ur ning
Ġg a
ĠT her
ĠA GE
pl an
ran ging
ĠF if
ĠF luorescence
our nal
ym ers
ĠV II
inc ter
Ġradi olab
Ġweight ing
Ġbar ley
tin ent
Ġpair ing
Ġreconstruc tions
ĠReg ion
Ġter restrial
Ġtrap ped
Ġhypoth yroidism
dri ed
Ġexceed s
Ob jective
Ġstring ent
Ġantipsych otic
Ġcholec yst
Ġweigh ing
Ġcing ulate
0 27
J D
S G
U SA
er ator
Ġd ressing
ic on
Ġr uled
ĠM er
ther mal
vi x
Ġinf ormal
ast atic
enc oded
ĠK v
Ġfirst ly
AD P
Ġdam aging
ĠGroup s
ĠCL L
lig and
ĠMY C
Ġopin ions
Ġimmuno assay
Ġoccas ions
C HO
D emographic
E CM
V AS
W A
h ot
p ig
Ġc ensus
Ġin acc
ĠT CM
ĠC av
ĠH BsAg
Ġse aled
ĠD anish
Ġap plies
ĠL ocal
rol ase
Ġbi phasic
Ġloc omotion
Ġevid ences
Ġfat hers
ĠGen omic
ci ence
Ġharb or
Ġpractition er
Ġdescript ors
Ġdehydr ated
S cript
T i
ell i
qu ilibrium
ĠP SD
ĠM ur
ĠM ont
ĠR M
Ġdi arrh
ĠG PS
Ġpar ag
ĠIn tra
Ġme ant
Ġpartic ulate
14 1
Ġox yt
Ġclass ifications
respon ders
ĠCT C
Ġdiss oci
(- /-
Ġcomprehen sion
sub unit
itor ial
ĠCr iter
Ġtrap s
Ġimmunore active
ĠOnt ario
Ġmere ly
Ġtranscriptom ic
Ġlitterm ates
C at
F v
H igher
M or
W D
ti pation
Ġp itch
Ġin ev
is en
Ġf idelity
Ġre ef
Ġg ather
ri z
te bral
ĠU P
Ġbi oc
ĠV SM
ature d
Ġconcentr ate
Ġes cal
ov es
ĠQ T
erv ised
ĠAm pl
Ġstri ps
Ap proximately
ĠIs ra
Ġcrystall ographic
lam ed
Under standing
Ġshr inkage
Ġnation wide
ectom ized
Ġconsolid ation
Ġdispar ity
norm ally
ed ent
Ġp cDNA
Ġw ine
ent anyl
ĠS anger
ĠF il
igh ter
ĠB N
Ġtwo fold
ex posure
Ġconf erred
Ġpattern ing
ĠX RD
Ġpul s
Ġhemat oma
+/ +
FL AG
Ġburn out
opy ran
Ġencompass ing
d ents
Ġin ward
ur onal
un a
ĠT O
op ing
ri ers
Ġch ow
Ġco al
ser ved
ram ine
ok inase
spec trum
Ġanaly tic
Ġradi ography
Ġfunctional ized
ardi zed
As p
Ġreason ably
ĠAL DH
Ġmineral ization
Ġmess enger
Second ary
Ġparal ysis
hom ogene
Ġile um
Ġstir ring
Ġtac tile
Ġdysp nea
F As
L O
S B
T est
g ression
Ġb act
ul ins
ur red
ith i
ĠS IV
ine tic
tr acting
Ġsc reens
Ġend osomes
Ġwhere in
Ġset ae
Ġj aponic
SI S
22 1
Ġhom od
Ġread y
ĠPD B
ĠCl ostrid
ĠCol lectively
âĢīmin utes
ĠHS Cs
but yl
Ġtrap ping
omb inant
ĠEp idemi
ĠMat rigel
ĠEA E
ĠGTP ase
Ġreinforce ment
Ġvertebra e
istinguish able
' )
g ian
p aired
Ġb row
ver ages
ĠS ections
ĠI PT
ĠP CC
ĠP AD
Ġmet am
Ġout door
ex cept
Ġnew er
inc ubated
Ġeng aging
ĠCol lection
Ġorth odontic
Ġveget ative
Ġcontrac tility
Ġcortic osterone
Ġpunc t
Ġpartition ing
Ġho ok
ĠBiot ech
Ġacknowled ged
ĠBelg ium
H em
P res
T umor
W ang
p erson
or ative
ĠT SP
Ġv iolet
ĠC ong
ĠA ch
ĠH SC
ĠB B
ĠE agle
ap ter
Ġmo ves
Ġend oph
ĠJ ose
19 5
Ġmembers hip
Ġtax on
gu inal
Ġcreat ine
amb iguous
ĠFT IR
Ġcorro sion
struct ural
D isc
d iss
e tics
o active
Ġf usions
ur onic
od iazep
ver n
em ory
rom ised
Âł file
ĠO d
ĠO cc
Ġspec iation
Ġun biased
Ġpr inted
ĠÎ ½
Ġmon ocytogenes
Ġprim ate
Ġfl aps
Ġlo os
Ġphot ons
ĠST R
Ġfibro tic
Ġspeed s
Ġcounter part
rac heal
Ġendomet rium
Ġmom ents
Ġâĸ¶ ).
Ġcommunic ate
Ġdox ycycline
Ġantidepress ants
Ġallevi ate
ĠLact obacillus
Ġdisappear ance
ĠXen opus
ĠBangl ades
0 26
b led
g ments
m atis
it ories
ati l
ĠC PT
ĠC ML
si p
ĠI PV
ĠR ock
Ġco ffee
ĠL astly
ĠO CD
fer ior
âĢĬ <
ĠRe v
Ġadv is
Ġcoll oidal
Ġfund ed
ĠDN MT
Ġantico agulation
ĠTI MP
Ġpriv acy
Ġatax ia
A verage
M ET
P b
S K
l ived
n ucleotide
Ġv inc
th reshold
ĠF G
Ġpar ity
Ġ5 000
Ġwhe el
In t
Ġmeth otrexate
Ġtr uly
200 2
target ing
P he
P RO
c entral
y tical
Ġp ec
at ches
Ġf rog
Ġf riction
Ġre imb
el in
ac ies
ĠC ross
ĠM BP
ĠR ating
ĠL TP
ĠK y
Ġmon oc
Ġmon oph
Ġnucle osome
ĠUn i
Ġprol actin
Ġcapac itance
romet ry
igen es
Â® ,
Ġhair pin
ref erence
Ġconsult ations
Ġechocardi ographic
Ġprecipit ate
osc ale
ĠCommun ity
Ġdetox ification
U se
ur t
ĠS CF
ub ble
ĠF ull
Ġco factor
Ġco arse
ĠG DP
Ġmod ulators
oth i
CA AG
Ġ15 00
Ġincub ating
com mun
Ġorth op
Ġjud gment
Ġpi ece
Ġdeliver ies
ĠPrim er
Ġhomogen ates
Ġequival ents
Ġnoct urnal
E EG
R FP
o tics
t rained
w estern
ĠC SC
ĠS HR
Ġse eding
Ġsh ar
igh teen
ĠN G
ĠG el
ĠL RR
ose x
Ġdet ergent
ob e
Ġrep os
Ġanaly te
con duc
epti dase
Ġinfec tivity
Ġdiss ociated
Ġtransform ations
NK L
ĠSur prisingly
Anal yses
Ġsustain ability
Ġafford ed
virus es
ĠGo ogle
ĠTN BC
Ġduod en
Ġevapor ation
B H
C YP
d oped
x i
Ġt on
Ġf us
ĠS et
Ġen orm
ĠR un
Ġpos itron
ile y
yc le
onstr uct
oun ted
ĠPD AC
ier ce
oxid ant
Ġglyc olytic
Ġvit amins
Ġca vities
Ġqual ified
Ġemph ys
Ġartif act
Gen eral
Ġcorrespond ence
squ ared
Ġcouns elling
acryl ate
Ġmandi ble
glob ulin
galact osidase
ãĢ Ĥ
Ġhystere ctomy
Ġcoversl ips
T BI
d ate
p n
et axel
ĠT AM
ĠS PI
Ġch r
Âł c
oid y
Ġiniti ative
Ġadd s
af il
Ġnan otubes
ank ton
Ġadap tor
ĠCl in
aro us
Ġolig osacchar
Ab cam
Ġinfiltr ate
Ġcultiv ar
Gen Bank
Ġthym ic
Ġradio active
Cor relation
Ġcool ed
Ġagric ulture
vit amin
prom oting
Ġcollis ion
Ġsut ures
Ġpostp randial
Ġprere quisite
P ot
Ġo u
Ġm Glu
ĠP LC
ĠH or
und ant
Ġind istinguishable
az on
Ġdys phagia
Ġlig ated
Ġpig lets
Ġhouse keeping
Ġsubc ortical
oll agen
Ġsegment ed
Ġbronch i
igm oid
Ġlens es
ĠUg anda
K T
Ġp anc
Ġw ax
el a
st alk
Ġac ted
Ġr ituximab
ox ane
Ġdec ide
Ġover lo
ob es
ob ility
ĠK l
Ġdep icts
ok es
con ver
Ġparen teral
Ġir relevant
AA V
ĠCo ul
Ġnorm ative
mi RNA
she ll
Ġvictim s
omegal y
t reat
Ġo cean
is sive
Ġh ollow
im otor
op yr
ĠP FC
ĠF lu
ĠD ic
Ġrel ied
ĠV ir
emb ry
Ġso y
Ġlead er
Ġ16 8
Ġadv ised
Ġpeak ed
Ġsmok ed
Ġrestric t
Ġsci atic
Ġpass ages
Ġcre di
ĠReg ister
oll en
Ġcataly zes
Ġosteocl asts
press ure
Ġleth ality
obarb ital
4 80
M illipore
N ational
p ers
Ġin guinal
Ġg ases
ut roph
od ermal
ĠC ronbach
ĠF ram
ys tis
ĠE st
low ering
ild en
ind ole
PA RTICIPANTS
Ġ13 2
Ġz o
Ġback ward
Ġsch ist
ĠIm pro
Ġrestric tive
link s
Ġlum inescence
Ġbenz ene
Ġconv inc
Ġpermeabil ized
Ġplasmin ogen
0 28
d ine
h ow
n an
Ġt rophic
ic ting
Ġth aw
00 05
ore active
ĠR os
Ġab rup
Ġdec id
ĠV D
iv ity
Ġ19 79
ron ate
Ġparticip ates
16 7
19 2
ĠCI N
Ġsil k
CO PD
Ġultr ast
ĠAc ademy
sec tions
Ġautophag ic
ĠSw iss
ĠDR G
H G
R o
c hers
i omy
k ins
y k
at ectomy
Ġd ict
ac quired
ig ms
ĠT AG
Ġas cribed
ĠH GF
ĠB G
ĠU T
Ġbi ophysical
ark ably
CA D
20 3
work ers
Ġcross es
Un like
Ġassign ments
ifferenti ation
she et
Ġheterozyg osity
ĠSym ptom
Ġtraine es
F BS
a ware
f in
es tim
Ġre jected
ĠT NM
ĠG ra
ĠG rowth
20 4
15 3
anti gen
Ġreview er
Ġsepar ating
ĠEx p
olar s
Ġinduc er
ĠLe ft
Ġwave form
Ġpolyp eptides
Ġple i
Ġmanip ulations
fam il
Ġvide os
ICA L
ĠmC herry
B MD
C an
C ross
F ew
M aterials
Ġt ilt
Ġc ream
ĠT ox
Ġr ash
Ġcont ing
ĠL eg
pro ducts
Ġactiv ators
Ġun ambiguous
one ph
ĠK I
ric t
hel ia
Ġenh ancers
22 2
Î¼ M
Ġparen ting
ophil ia
Ġseed ling
Se venty
Ġhybrid ized
Ġdecl ining
Ġuns uccessful
oler ant
Ġresemb les
Ġrecap it
- /
G r
K E
e ated
m ercap
Ġc otrans
Ġf ission
Ġre organization
ĠT ax
if iable
ĠC yp
ĠC SA
ĠP rec
ine phrine
are a
Ġap olipoprotein
ĠL BP
pro duction
Ġrec tum
Ġbi ocompatibility
Ġ9 00
Ġcollec tively
of ibr
ĠEx cel
Ġparen chymal
iat r
Ġsitu ated
ĠAc tivity
Ġtw ins
mod ulin
Ġduplic ated
Ġeryth rop
ĠOT U
Ġlaw s
armac ological
Ġimag ery
Ġencephal itis
ĠChar acter
Ġaccommod ate
Ġnotice able
Ġappeti te
F DR
G W
f emale
Ġc iv
Ġp ink
it ual
us tion
id ney
ĠC aco
ĠI X
ĠM SI
ine ering
ĠE arth
Ġinf usions
Ġcons ume
ob ia
Ġdep ths
Ġend ocardi
ores istance
Ġtr acing
Ġcoun ties
23 5
Ġsensi tivities
Ġhom ocysteine
AL T
urb an
Ġdop ing
inn itus
ĠSV M
Previous ly
Ġult raf
Ġancest or
Ġhypertroph ic
Ġsulph ate
Ġredund ant
Ġgalact ose
Ġdiaphrag m
Ġregurg itation
? âĢĿ
N ES
b ion
Ġc iprofloxacin
ĠC ry
ĠC irc
ĠP TP
Ġat rium
ĠM ouse
Ġpl ating
Ġprotein ase
16 1
18 2
âĢĬ 3
Cl in
Ġprolif erate
olip ids
Ġhard ware
Ġgli omas
chlor o
Ġradio activity
ĠTaq Man
Ġcolocal ization
ĠHUV ECs
D CS
G ibco
S amples
T N
n oid
y ric
Ġt ell
os oma
Ġg ot
ran olol
ĠF CS
Ġ3 60
Âł L
Ġdi hydro
ace a
ail ure
Ġform ic
ric e
Ġmicro p
Ġconduc tive
Ġneuro trophic
Ġcheck list
Ġask ing
exp ensive
Ġmorb id
Ġepis odic
cy te
lit azone
ĠEnter obacter
0 29
B NP
F H
P earson
Ġw ake
or tions
Ġm aze
Ġb oy
il er
am mon
ĠS un
ĠD V
ĠE MB
Ġme iotic
per t
ide o
Ġcar p
15 8
Ġpsych ology
Ġrecogn izes
ĠMD M
Ġhome ostatic
ĠCH F
IC E
load ing
sub stituted
arin ic
Ġparad igms
ryst als
PK C
Rel ative
Ġsph incter
Ġtry ing
Ġrect ang
c ass
w ich
Ġa ur
Ġp orph
ic tive
ĠC er
Ġ2 60
di rect
Ġinter ior
ĠW a
Ġmic rol
Ġy og
ym ethyl
ox yp
Ġbl unt
arg ing
ĠQ Ds
roscop e
ret inal
Ġpotenti ation
Ġthough ts
ges tive
ĠOR Fs
ĠSecond ary
Ġadvance ment
Ġinequ alities
Ġcub ic
Ã§ Ã£o
ubb les
Ġarach id
Ġvitre ous
Ġalloster ic
R andom
n at
p c
s upp
Ġw ards
Ġh amp
Ġl amp
ĠA NC
ure th
ĠP RP
ĠD W
ĠB urk
âĢī 20
Ġpar k
ĠL ower
cl one
Ġequ iv
Ġ14 5
Ġ13 4
Ġmen opause
cep tive
Ġrepro duced
Ġrespond ent
Ġnumer ically
raz ine
eli ac
ĠAR DS
Ġhydrox ide
Ġemphas izes
abs orption
oderm a
Ġdiscipl ines
Ġald osterone
Ġpacem aker
C NT
H ydro
K M
P N
R isk
V is
h ar
t onic
Ġc c
et r
ĠP ain
ĠP MS
ĠF ib
ph an
ĠN egative
ch in
In hibition
out heast
ES C
ĠCD R
Ġhist ones
ĠSc ot
ER D
Th ose
Ġadhesion s
TL V
Ġsplic ed
Ġbrid ges
Col lectively
Ġrub ber
Ġtur ning
rystall ine
Ġnemat odes
Ġamplic ons
M orph
S urgical
T op
z ero
Ġd ur
Ġcon vers
ĠC MR
ad ays
ĠF r
ĠD BS
ĠE ight
ĠE stim
Ġunder graduate
Ġout patients
Ġdem anding
17 7
Ġprob abilistic
Ġ25 6
Cl ass
Ġprac tic
Ġtransfer ase
ĠMed ium
Con versely
ignific ance
Ġves icular
Ġcompet e
Ġwar ning
Ġduplic ates
Di rect
Ġquad ratic
Ġgir l
Ġpredis position
Ġresemb ling
Ġoccasion al
Ġencaps ulation
ĠDel ta
Ġign ored
Ġelectrom agnetic
omyel itis
ĠLew is
L N
X X
d rome
Ġt onic
Ġp M
ro blasts
Ġth igh
ac cept
Ġn u
Ġgen otypic
Ġvari ances
min o
Ġi i
Ġalg inate
Ġconver gent
Ġmis class
ĠLi ver
Ġshed ding
Ġteac her
Ġhelic es
Ġascorb ic
Ġpuber ty
Ġmediast inal
Ġsuperim posed
Ġoverw hel
B one
H H
K e
R h
Ġ( â
Ġn ut
ĠS Q
ĠS PR
ĠF er
Ġind igenous
ĠV F
reg ulatory
ĠCD Cl
Ġcyt ometer
Ġfacil itation
ĠAT F
Ġturn s
Ġdeep ly
Ġauto immunity
Ġgastro enter
Ġbul b
ĠPol and
crip ts
Ġempir ically
Ġhomolog ues
Ġstock s
Ġselen ium
Ġhams ter
Ġmunic ip
olester ole
Ġcada ver
m el
p ressing
z u
us sis
Ġh inder
ter ing
Ġis ometric
ĠC AG
Ġal ert
Ġde gen
ĠD FT
str ong
Ġno v
hen icol
Ġprior ities
Âłm mol
opro te
AA A
Ġminim ized
acet am
ĠâĪ Ĺ
Ġdiscrim inant
Ġexpress es
ovirus es
Ġlap arotomy
syn onymous
Ne ither
Ne asy
process ed
ĠSte p
Ġemit ted
Ġcobal t
f unctions
u od
ro x
Ġb out
ce le
ut y
ĠM CT
Ġim atinib
Ġper ine
ĠR en
pt osis
Ġun employ
erg ency
Ġins ensitive
ie u
ĠCD S
Ġmater n
Ġ14 4
po or
Ġrot ating
Ġdiag onal
ĠAff ymetrix
Ġphotore ceptor
Ġobstac les
ĠMEAS URES
Ġbuc cal
. :
W ork
d istance
v ular
er als
Ġc ured
Ġre form
ĠC ase
se eking
ĠF W
ĠR a
ap a
ĠG ood
Ġval ves
Ġprob ing
az o
amp henicol
ĠMed ian
Ġtransf ers
Ġguid ing
Ġcall ing
Ġfer ment
Ġchlor o
Im pro
Ġpal p
overn ment
Ġstandardi zation
ĠInter view
Ġhierarch y
Ġphospholip ase
ACh R
Tri als
Ġcontradict ory
G ST
I CC
R as
f ts
j oy
n ed
Ġt idal
an amycin
ĠA rea
ĠD ick
ĠR AP
ĠR andom
vi al
Ġint olerance
Ġap er
Ġinter genic
Ġinter cal
Ġcons tipation
Ġro str
hes us
Ġsyn onymous
Ġmulti factorial
18 5
Ġ13 8
Ġstrateg ic
Ġneuro toxicity
Ġintegr ative
inter quartile
Ġfund us
romet er
igen ic
Ġreflect ance
ĠLi ke
Ġce ft
Med ical
Ġdivers ification
a ques
s al
z ens
on ing
or ylation
Ġ( (
Ġth irty
il a
ab an
ĠI RS
Ġen ding
all ic
vers y
CD s
Ġcirc ulatory
Ġunc overed
Ġshort ly
Ġleuk emic
ĠAp pro
Ġped ig
Ġven a
uz i
Ġcatheter ization
Ġadip ocyte
Ġflavon oid
Ġnarr ative
Ġfing ers
p ent
Ġs it
Ġf ove
ĠS OC
ad ec
Ġinc ong
Ġph il
Ġag itation
Ġloc ality
Ġmut ually
ES S
ĠJ ackson
Ġemb edding
Ġmorph ologic
Ġsw abs
Ġembry ogenesis
vari ate
Ġepid idym
angu age
Ġsensor imotor
Ġter at
Ġpure ly
Exper iments
o j
he at
Ġin bred
Ġin expensive
le a
ĠF AC
ĠB AT
Ġrel apsed
ock down
16 9
ĠSt at
Ġsingle t
af e
aren cy
Ġcur ved
ER G
201 8
otox ins
NS CC
Ġsci ences
ĠPl ant
Ġband width
ĠAR F
Ġmanip ulated
ĠFl ag
Cons istent
Ġanis otropic
Ġmedull a
Ġincen tives
ĠPort ug
Ġlegis lation
m ade
s um
Ġt innitus
in ning
ti te
Ġm isc
as tig
ĠF ree
iz ability
Ġad ducts
ĠD IC
ap olis
ĠL PA
ari etal
Ġk V
Ġfol ded
Ġpri on
29 4
Ġmem ories
Ġcogn ate
activ ate
AB C
Ph osph
Ġpal m
ĠMe OH
ĠSur ve
Ġrepeat ability
ĠFran k
UR E
Ġcos metic
Ġacknow ledge
Ġparac rine
Ġdestro y
0 22
E stim
] +
l ane
Ï Ħ
re valence
Ġc esarean
Ġw el
ĠT im
ĠS audi
ĠB CA
ĠR EG
ĠN ic
ĠW A
RNA i
Ġnucle ase
Ġol ive
Ġhyper activity
Ġoste otomy
Ġaff ili
met ric
Ġconver ting
Ġpharmac ists
Ġimm ortal
DM EM
Ġwa it
ĠME DLINE
ĠWh ole
Ġmask ed
do i
Ġvascul itis
Ġexpendit ures
Ġson ication
ĠCs A
Ġcong ruent
ĠAust ria
A Î²
r atio
Ġb ins
ĠT f
Ġr he
ĠM es
ĠE H
ĠL NC
tr ary
yl obacter
ines terase
Ġ19 75
Ġconf erence
ĠUn ion
ey er
trans lated
Ġcat ast
Ġkin et
Ġlog ic
Ex posure
Ġcomm ens
ĠAc ute
ĠCol or
Ġorth ologous
Ġgr asp
Ġgraph ical
Ġbed s
cephal us
Ġmicrog raphs
Ġtro ponin
Ġanthrop ogenic
ĠFox p
Ġdrink s
ĠĠĠĠĠĠĠĠĠĠĠĠĠĠĠĠĠĠĠĠĠĠĠĠ ĠĠĠ
Ġaeti ology
U K
U pon
l at
Ġa fl
Ġ( âī¤
Ġl aryng
im ab
Ġor n
ĠG re
ak s
Ġag glut
Ġsyn ergy
rop ical
Ġsome one
Ġj ug
lor a
Ġmorph ologies
sp e
Ġmig rating
Ġgo es
Ġinternal ized
raz olium
yle th
Ġtrack ed
Ġhard ly
ĠPrevious ly
Inc reasing
Ġbrid ging
Ġencephal opathy
Ġdeploy ment
ograp hed
Ġcontrain dic
( +)-
2 23
t w
er i
ere s
un ted
ter one
ĠD ox
ĠN V
âĢī weeks
Ġ4 000
Ġsup ra
Ġcar cass
Ġcap turing
Ġatt ach
Ġey el
Ġangi oplasty
Ġtempor ally
anth in
Ġrelax ed
Ġastro cyte
hydrox yp
Ġing ested
Ġss DNA
Ġconfid ential
Ġpauc ity
E qu
ar ach
Ġn if
Ġpro poses
ir med
ch ool
Ġspec ify
Ġag ency
ĠK CN
rel and
Ġcaus ality
cl uster
Ġdispl ace
AR Y
Ġregression s
Ġlys ozyme
ĠSe ven
Ġglut am
ĠPT X
Ġpredom inance
Ġelastic ity
ĠInd ones
Ġimper ative
ht ml
Ġconve x
Ġrecep tive
3 000
K S
i en
Ġs ized
Ġc asp
Ġc iliary
Ġl ake
Ġg ins
ĠA SC
Ġ2 10
op id
ĠI BM
th irds
pl asm
Ġde er
Âł year
lec troph
pro duct
Ġind isp
Ġam ines
Ġstr atum
Ġunder pin
Ġlymph ocytic
pha rose
sh ift
Ġintegr ins
Ġcomput ationally
ĠMO I
Ġstain less
ĠLip ofectamine
Ġmultim odal
Ġgh relin
I MP
en dix
is per
Ġd N
et t
ĠT ask
Ġcom mitted
em inal
rom a
ĠP CL
Ġpre defined
ĠG N
ĠL OS
tr igg
In formation
oth orax
rap ped
ĠK S
Ġ19 60
Ġtr astuzumab
Ġprim ed
Ġreview ing
ĠAd j
Ġdynam ical
Ġbur sts
rolog ic
Ġkne es
Ġhar mon
Ġcoating s
avirus es
MK II
Ġrender ing
Ġpolyphen ols
Ġmetalloprotein ase
Ġenorm ous
2 30
L im
L uc
M ajor
c us
e lectron
Ġc iti
Ġp un
is in
Ġth read
Ġbe verages
Ġac utely
og rel
pl iance
Ġde acetyl
ĠD s
ĠN IR
Ġinf lamed
Ġpres erving
Ġet ching
Ġcar ing
ĠK m
CT GG
Ġj et
Ġproced ural
Ġpredict able
dom inant
Un iversity
ĠcDNA s
Ġresidual s
Ġtrack s
Ġcaps ules
Ġcer vix
Ġarchit ect
Ġdoub t
Ġcros stalk
inator ial
Ġamplic on
azep am
Ġmult in
Ġdiarrh oea
ĠBanglades h
F N
K ey
W B
W L
i et
Ġin jecting
ec u
et ra
st ad
ĠS TS
ĠP CT
ĠD CM
ĠE RP
ĠL p
ĠL ang
ĠL SD
Ġall o
ser ine
Ġbi otic
omet rically
Ġadv ancing
aw ater
Ġincorpor ates
yle tic
Ġinn ervation
Ġcomprehen sively
ĠComp any
Ġpal ate
Ġtun n
Sub sequently
Ġstream s
Ġimmunoprec ipitated
Ġinterrup ted
Ret rospective
Ġventil ator
Ġapt amer
Ġly ophil
D rug
G AT
R M
b in
c ellular
t RNA
y z
Ġt ape
im ers
ow ing
Ġbe ats
ĠP at
ĠP GC
th ym
Ġad here
Ġad versely
ĠB art
ĠG BS
Ġinter acted
uch i
Ġbl a
ten y
ne utral
Ġimmun ocyt
Ġtherap ists
Ġset tle
Ġapp e
16 4
ĠAl drich
fact ors
Ġgr ant
ĠSpec ial
cor relation
Ġinstrument ation
opo iesis
Ġhomolog ue
Ġord inary
Ã¼ ller
Ġincid ences
Ġreconstit ution
Ġguarant ee
Ġger iatric
R II
p ublished
Ġ ib
Ġs ad
er in
Ġto ld
ur i
id ene
Ġg ar
Ġv oc
Ġal arm
op amine
Ġres ide
Ġinc lusions
ĠE I
ch all
ap enem
Ġint rap
Ġcor tices
Ġun bound
ech st
ten e
Ġrem ind
Ġdef ence
Ġpat ency
Ġnucle oside
Ġterm in
rag matic
ĠST Z
Ġcult uring
ĠCo hen
Ġspon dyl
arrow s
Ġidenti ties
Ġwithdraw n
meth oxy
Sm all
bes ity
Ġhelic ase
Ġstrept avidin
Ġphosphatidyl inositol
Ġfoss il
ĠESR D
ĠMeth od
Ġnanost ructures
Ġultrast ructural
9 00
F OX
b el
j ac
r un
t raining
å Ĳ
Ġt il
Ġt ern
Ġw ish
Ġm ari
id yl
ĠT U
ĠR everse
ĠG AG
ĠIn tr
Ġinter molecular
Ġmod ulator
Ġconc urrently
ob ese
16 2
19 6
Ġfl our
Ġmal t
bi osis
Ġinvas iveness
Ġtoler ant
ancre atic
ĠOR s
Ġsection ed
orrh iz
mi RNAs
Ġmethyl transferase
hex ane
Ġsynchron ized
ĠHO MA
Ġbud ding
Ġjus tified
Ġthous and
Ġunders c
Ġredund ancy
Ġviri ons
Ġrecre ational
ERV ENT
w k
Ġt ank
Ġt ensor
Ġre in
os ylated
op tosis
qu antitative
Ġwh isk
ĠB etween
ĠN ASH
Ġco valently
ater gic
Ġsp ong
Ġmo tions
av in
Ġep inephrine
Ġbacter icidal
âĢ² .
ĠER Î±
Ġrecru iting
Ġlact ose
Ġtun ed
Ġsymb ol
ĠCent ers
Ġexec uted
Ġabst inence
ĠOnc ology
D istribution
T reg
b umin
k it
r ater
es pecially
Ġl ining
Ġis ch
od a
oc ations
ĠA rm
ab e
ĠS RS
ĠI ÎºB
se y
se ous
Ġsh ot
eren ts
ox ib
Ġrece ives
17 6
Ġ14 3
Ġresid ency
ĠAt g
ils on
ĠLe ica
Ġsqu ared
ĠâĪ Ĩ
ĠSub sequent
Ġelectroph oretic
Ġregist ries
Ġclaim ed
ns ic
Ġexplo it
Ġdent ate
Ġdev oid
transf ection
Ġreservoir s
Ġlen tivirus
Ġinsectic ide
Ġsho ots
J NK
L ocal
e q
f ront
ĠA ur
ĠW ar
ack er
ix imab
Ġimmun ogenic
Ġspecific ities
Ġinflu ential
zym atic
Ġ13 6
ode oxy
oh ort
Ġsix th
Ġreal ize
Ġsw ab
Ġcop olymer
ĠSe quencing
fl ight
ĠCd k
Ġhapp ens
net t
del ta
azol am
adap ted
Ġexhaus tion
âĭ ¯
ĠPak istan
Ġintroduc es
Ġacqu iring
M CA
N ormal
o il
o ate
ä º
on ad
Ġg ently
Ġcon gestive
ĠM CL
ĠM ajor
Ġen um
ĠN CI
ĠG ran
Ġsub tracted
Ġph thal
ĠW NT
Ġun adjusted
de veloped
Ġloc k
Ġevalu ates
Ġcyt ogenetic
Ġ16 40
Âµ m
Ġglyc an
Ġbil aterally
ĠPR L
ĠME Fs
ĠAnal yses
Ġhydroph ob
ĠCor relation
Ġround ed
Ġvolunte er
Ġgranul ocyte
Ġulcer ative
ĠRB Cs
Ġtolu ene
Ġorthop edic
D V
N umber
d ich
Ġp S
Ġp umps
Ġd rafted
Ġth io
ot r
Ġde ionized
Ġco oking
Ġdet ached
ect on
Ġem ail
par ag
Ġtr ach
Ġprim or
26 0
Ġmig rated
ĠPC NA
Ġcorrec tions
Ġantagon istic
ĠNor we
Ġprolong ation
Ġsatisf y
Ġremod elling
Ġarg uments
Eight y
condition ing
Ġsuccin ate
atisf action
XLS X
Ġaper ture
opid ogrel
. âĢĻ
B o
F ox
W C
v ar
Ġa rose
en oic
Ġf entanyl
Ġ( +)
Ġn ationally
ĠT OP
ĠT anz
ĠC U
ĠI KK
ĠP Y
ĠP hen
ĠR ight
Âł %,
our acil
Ġbut ton
Ġsup ram
Ġar rangements
Ġour s
Ġimp utation
inc ipal
Ġcr uzi
Ġfl oral
Ġstimul atory
ĠCon t
ĠDM F
Ġensure d
Ġaud it
Ġcav a
Ġcer amic
Ġjud gments
Ġmind fulness
Ġchor oidal
burg h
ĠMalay sia
Ġinstant aneous
immunoprec ipitation
Ġsav ings
Ġpolyn omial
2 12
M el
T MS
Ï ī
Ġt in
Ġf oster
Ġb orders
ar rhyth
Ġth al
ac ers
ol ism
ĠI CS
ĠP AC
Ġle ishman
ĠN utrition
ĠL RP
Ġmet at
Ġme iosis
Ġanalys ing
Ġsp ending
Ġidentif iable
ES Cs
Ġfurther more
Ġneu roph
Ġmal formation
Ġbre aking
Ġhyper ther
Ġviv ax
Ġmedi ation
Ġtub ule
Ġquestion ed
Ġlog ical
Ġnat ri
Ġemerg ent
ĠÎ³ Î´
ĠSS c
Ġeryth roid
Ġbud get
diagn osis
ĠFOX O
inj ury
opter a
ĠTur key
B ody
K L
g raph
h ols
in um
Ġc ilia
Ġp ic
Ġan aphyl
ig an
un saturated
od extr
em ics
Ġse awater
ĠF unction
ĠD EX
ĠL inear
Ġall oys
Ġser ous
Ġtechn ically
25 6
Ġrelated ness
Ġmy oblasts
Ġsum med
Ġcat abolism
Ġdynam ically
ĠCom mission
Con f
Ġpossess ing
nc bi
carb ons
ĠSM AD
Ġane upl
Ġderm is
Ġposi tional
Ġdeline ate
Ġencoun ters
Ġrhin itis
Ġantiser um
Ġhaemorrh age
d ifferentiated
al one
Ġp ond
Ġd pi
ati zed
Ġsh aping
act one
ap ular
rel im
Ġcomple teness
Ġop ens
Ġpred ators
eng then
Ġthem atic
Ġintra vascular
Ġobserv able
Ġvers atile
âĢ¯ Â±
Ġgo ats
CM C
Ġdoc etaxel
Ġspati otemporal
âĢħ h
raf ting
kin in
Ġneph ro
Ġneighb ors
Ġblind ness
Ġcontro versy
Ġmoment um
sil on
Ġcyl inder
Ġtranspos on
Ġflask s
Ġhypother mia
Ġpec uli
B rain
G V
T ak
W H
p A
Ġd orm
ol ves
op sin
ĠS CN
Ġdis aster
Ġen joy
ari atric
Ġincre ments
ĠK B
ĠK L
oun tain
Ġ12 00
Ġaut ocor
Ġradi ograph
ĠRe agent
Ġload ings
Ġlat encies
Ġgreen house
Ġinn erv
ĠCr ypt
UN X
Ġoscill atory
Ġmening i
Ġdoub ling
Ġuncom plicated
ocyan ate
Ġhall uc
Ġtransp arency
uzz y
c ourse
f al
p ower
Ġt ears
ul ting
Ġfor th
ĠT erm
oc ene
op henyl
ĠI reland
iz z
ĠB ir
ĠR ather
ch ip
âĢī H
ĠIn vestig
Ġsub traction
ree k
Ġanti platelet
Ġhyp erv
pos terior
18 4
Ġz eta
ogene tically
Ġ17 5
Ġdys functional
orph ic
Ġconstruc ting
Co V
Ġpip ette
ĠDS B
Ġinters ection
Ġascer tained
Ġfilament ous
Ġglucocortic oids
depend ently
Ġobl ique
osex ual
relim inary
L DH
o A
Ġh CG
ver tebral
Ġim idazole
ĠB ra
ĠR EM
ist in
tr l
ox azole
ces sively
ateg ory
Ġcross linking
ĠâĪĴ /âĪĴ
Ġinser ts
Ġillustr ation
Ġcolor imetric
max imum
Ġspe aking
Ġmim icking
UN LAB
Ġsent ences
Ġglycos yl
INT ERVENT
Ġanomal ous
Tr p
Ġnitro cellulose
thromb otic
Ġinvari ant
ELL ED
Ġbifurc ation
Ġemphys ema
UNLAB ELLED
0 37
C are
P SA
a icin
c urrent
e qui
Ġa vid
ti an
er as
at ur
is y
le m
ĠC BD
Ġbe an
ĠS SA
ĠI SO
se al
Ġch a
ĠF g
Ġle iomy
âĢī Ãħ
ĠW ell
Ġun ion
iti zed
Ġpr ices
Ġsm ears
âĪĴ )
Ġmulti dimensional
ateg or
RI D
opl ankton
ps in
Ġsuperior ity
Ġland marks
centr ations
Not ably
Ġcannab in
Ġswallow ing
encl ature
umann ii
Ġrab ies
G reen
M ar
W P
n icity
Ġa f
Ġc GMP
Ġp as
or ange
ar terial
ing ual
el ic
Ġst eric
Ġis omers
ĠS SC
Ġdi visions
Ġk Pa
Ġsub tracting
Ġqu enc
cop y
Ġcomb at
Ġchem oradi
co holic
Ġlinear ity
Ġprote as
eti tive
Ġcomplement ed
Ġye asts
Ġground water
Ġbenz odiazep
Ġsched ules
ĠMy o
Ġunf olding
Ġath le
urk at
opa edic
ĠMax imum
Ġdeploy ed
Ġcit ations
ĠEffec t
gar is
ĠSchw ann
ĠNSAID s
ĠNorwe gian
I X
I BM
T arget
Y S
e ither
Ġs ort
Ġ( %
os ted
ĠT MS
ĠT urk
am ed
Ġbe ef
ĠP it
Ġexp ense
Ġco agul
âĢī V
ĠL IN
ĠL aw
ĠW BC
rol ine
ĠO E
ros ome
ass ays
Ġwell being
Ġele ven
Ġsensi tized
Ġtransfer rin
dom ains
Ġtransf usions
mitte es
Ġnod ular
cy steine
Ġthym ocytes
ĠDO I
ĠIniti al
ĠOB JECTIV
Ġheterod imer
Ġworksh op
Ġpermut ation
Ġneovascular ization
Ġchemil uminescence
2 14
C er
d ermal
l ateral
Ġa eg
ith romycin
ĠC BS
ĠA ir
ud ine
ĠW R
Ġqu artz
Ġbi variate
Ġnon coding
over ning
spec ially
CI s
Ã© s
Ġsleep ing
lear ning
Ġantagon ism
Ġer up
methyl ated
Ġren dered
Ġindust ries
ĠFI NDINGS
Ġisot opic
Ġspik ed
Ġtranspl ants
Ġserop revalence
Ġtetram er
l iquid
Ġp est
Ġin er
is chem
Ġ( =
ĠT oll
ĠP AP
ant o
ĠM r
ĠF inn
ĠD an
ap atite
Ġun igenes
ox yn
Ġpr inting
Ġdep ar
Ġwork force
Ġdiscus sing
Ġinfec tive
pr one
ars al
usp id
Ġhapp en
Ġanten na
Ġbin omial
Post operative
Ġgeomet ries
nl m
(-/- )
Ġabrup t
famil ies
Ġglutam atergic
H RP
O Ac
f s
h l
m r
Ġthe me
Ġin patients
or is
is ure
Ġb ite
Ġg aining
ĠC z
tic ism
ĠH ox
ĠF oster
Ġper taining
ĠB OLD
ĠL ED
ox al
Ġout ward
cer ning
hen g
Ġ19 78
CA GG
Ġnew s
Ġcomb inatorial
Ġret urning
Ġmy x
Ġ16 5
mit ting
Ġresid ing
Ġeven ly
34 2
ĠRe ad
Ġmorph ometric
Ġdam ages
pr ise
ares is
Ġrhyth mic
partic les
Ġfoss a
ĠRespon se
ĠGuid elines
Ġoxyt ocin
Ġbact eremia
0 20
â Į
å Ī
in ar
in ferior
Ġc ra
Ġn al
ĠS MC
ĠI OL
di ast
Ġad duct
Âł vivo
Ġsp aced
Ġmin erals
Ġwhen ever
Ġconf ident
Ġtherap ist
Ġsol ute
Ġblood stream
Ġhem olytic
ĠTo ol
Ġutil izes
Ġir r
ĠAT R
Ġpharmac ologic
Ġfer ro
Ġprepar ing
Ġpack ages
Ġperme ation
Ġmoun ting
illi ams
adren aline
Ġdip ole
Ġemp athy
Ġbat ches
Ġcomfort able
irradi ated
Ġimmunocomp romised
Initi al
Ġoverlo oked
ĠLNC aP
Ġindisp ensable
l ate
Ġ iv
Ġst acking
ĠC ost
ell ate
ĠF und
ĠR oy
ĠE O
Ġinter cept
Ġpres chool
Ġmon ot
plement ation
Ġorgan isation
oper iod
Ġoptim izing
Ġheter ochrom
cepti ble
Ġglut amic
Ġpig mentation
Ġlist en
Ġuns up
ĠMo S
ĠQTL s
Ġspik ing
Ġbeg un
ĠACh E
Ġling uistic
Ġmagne tization
Ġsubdi vided
Ġabrog ated
Ġendocardi tis
0 21
0 35
M il
ol or
ur ring
Ġst ro
Ġcon vey
Ġex ceptions
oc omial
si ans
ĠM AR
di phenyl
di ameter
Ġcl ay
ĠL and
ens ation
Ġpost mortem
Ġmulti functional
Ġpub lish
Ġorder ing
Ġnan oscale
ĠCT Cs
ĠEx t
Ġevolution arily
Ġfraction ated
sec ret
Ġsoci ally
with in
Wh ole
Ġhazard ous
Ġgraf ted
Ġtrache a
ĠVer sion
ĠEG TA
Ġsarc oidosis
Ġinequ ality
Ġpestic ide
transfer ases
Ġattain ment
Glc NAc
Ġinhabit ants
atil ity
S ensitivity
c g
g ran
Ġo m
Ġc red
Ġp ter
Ġd ic
ati de
st yrene
oc used
ri tion
In troduction
rain s
Ġar te
ov ar
spec ial
ĠSt ation
Ġhydro carbons
Ġepit helia
Ġillustr ating
Ġphyl um
Ġod ont
Ġped icle
itone um
Ġcompens ated
ĠImmun ohist
col or
Ġquar tiles
Ġpay ment
Ġhar monic
Ġdyst rophy
ĠIndividual s
ĠGh ana
recogn ized
trigg ered
C ap
F D
M i
f raction
Ġt ether
Ġan ore
ar aldehyde
et ing
Ġfor k
ĠT AP
og l
ĠP el
di tions
ĠH aw
Ġwe aring
Ġpres sing
Ġind ole
ser ies
Ġmed ically
yt he
Ġ19 0
Ġgrow s
Ġmulti p
18 3
Ġz yg
AG T
Ġkey words
adi um
ĠBi ol
Ġsecre tions
Ġprop idium
ĠPL GA
max imal
ĠBe havi
Ġcycl ospor
ĠGl ut
prot ected
Ġanth rac
ĠFour th
Ġmask ing
ampl ed
Ġinten tions
Ġcaud ate
Ġtriang les
Ġureth ral
Ġprednis olone
ĠDist rict
ashing ton
Ġscram bled
ĠEnviron mental
I B
O l
T issue
i rel
y x
y go
Ġa ids
Ġre ti
om ies
et om
un ing
ĠT MD
yp an
ĠE US
ion ate
ch olesterole
ĠO lig
oci ations
Ġ15 5
ĠAn t
34 4
cep tional
ĠPro f
ĠPh armac
met al
Ġeng raft
Ġsulf ide
Ġnorm ot
Ġnarrow ing
HL H
Exper iment
Ġcomplain t
ĠIran ian
Ġtrem or
Ġsequest ration
Ġlamb da
C yc
E ng
P op
t au
er atin
Ġan onym
im m
ĠT SA
Ġwas hes
up take
ĠP Cs
Ġper ovsk
Âł vitro
ost on
ĠW NV
ĠU AS
Ġsup erc
Ġsup plies
ĠK LF
roph osph
Ġox ides
Ġed ited
Ġhydro dynamic
CS C
Ġdiffic ile
sp eed
Ġaccum ulates
ĠCom plex
Ġchlor amphenicol
ĠCol umb
Ġpert ussis
diab etes
Ġbot tle
2 25
L iver
r ide
s ingle
z in
Ġh op
Ġn c
Ġcon idia
Ġpro s
ĠC AL
ĠA part
ĠI QR
ub e
ĠL OD
ox yc
Ġsup ers
par as
17 3
ĠThere after
ĠAn xiety
Ġmac aques
Ġunc or
ĠPD A
ĠPD T
Ġmig rants
IF ICA
Ġaccess ing
âĢħ (
inter acting
Ġcollagen ase
Ph ot
Ġvul garis
ĠEP O
Ġaddi tives
ĠIM RT
Ġintram olecular
Ġbring s
ĠPU FA
ĠOut comes
Ġfulf ill
ĠHo echst
ĠBu ffer
Ġsphe roids
Ġunexpl ained
Ġlid ocaine
Ġduoden um
R ats
W M
W hether
h ole
he astern
Ġs igma
is o
Ġe at
Ġas h
st ress
ĠM ap
ĠM erck
ĠB am
Ġdise quilibrium
Ġdeterm inations
Ġpred ator
Ġtr uth
asm ic
rop ic
Ġapp endix
Ġnormal ize
Ġproduc ers
Ġsk illed
Ġhel min
ĠHe ad
Ġdys regulated
Ġdam s
IL s
Ġsoci etal
HS V
bre vi
ĠSA H
Ġmyc obacterial
mat rix
ĠSyn drome
Ġobjec tively
partic le
ĠHa em
Ġmot one
Ġerythemat osus
Ġarachid onic
N CT
P BM
R H
g d
an er
an at
us ers
im etic
Ġg overning
Ġst ern
Ġde xtran
Ġcomp iled
ĠH N
ĠF X
ers ham
ĠK ol
Ġpath ologists
ĠJ ournal
Ġbas in
18 8
Ġhist opathologic
CD D
ino ic
Ġneut ron
St andard
AM L
Ġenrol ment
Ġhab itu
ah l
Ġonc ogenes
Ġstop ping
Ġexacerb ated
Ġsymb ion
versi bly
Ġcircuit ry
Ġbios ensor
ĠIniti ally
Ġsmart phone
ĠMich ael
Where as
lamy dia
P hen
b ur
d ens
m otor
Ġin homogene
ph ae
ĠB rad
Ġ3 20
Ġass emble
âĢī L
ĠG ag
Ġman eu
Ġup ward
iss ing
av is
lic e
19 99
Ġ15 2
Ġ15 3
Ġmetabol ized
Ġatt rition
27 0
Ġpsych opathology
Ġphot operiod
com it
Ġadop ting
ĠMe as
Ġov ulation
Ġcer tif
ĠIP F
Ġanalges ics
Ġreinfor ced
Ġbig ger
Âłk b
Ġtelomere s
Ġdiscl osed
Des criptive
IFICA NCE
5 000
= -
B MP
F luor
H ol
L ittle
M a
P an
g us
l ocus
Ġe q
ac ia
im ate
ĠC ary
ĠA FP
âĢī 100
ĠG ro
ĠL ine
end othelial
Ġcons ecu
Ġun identified
Ġsp r
Ġsyn cy
Ġcal ibr
Ġbas olateral
SI GN
ĠAl a
Ġneg lect
Ġ14 6
opl atin
Ġnan or
Ġfail ing
cep s
eric in
CG T
Ġprost atectomy
ĠAg ric
ĠCol l
Ġattenu ates
ĠCB T
ĠLV EF
Ġgovern ed
Ġunp red
Ġflat ten
adap tive
Ġterr itory
Ġtern ary
% ]
C ox
F er
G o
P i
P rospective
R b
g ray
l iving
s ol
Ġo ven
or se
ĠC ST
Ġal dehyde
ab l
ĠS ER
ĠH all
ĠE s
ĠE u
ist ently
ĠL arge
Ġun stimulated
entr ifug
Ġsp end
Ġrep aired
Ġgener ator
Ġacid ification
Ġext ensor
Ġtra v
Ġ13 9
Ġachie ves
Ġneuro genic
Ġoxid ant
Ġtub er
ĠCom mon
Ġmel t
Ġalco hols
oe lectron
Ġtax onomy
ders on
olin ium
Ġmoun tain
adren o
ĠMan agement
Ġskew ed
ĠApo E
Ġpie z
Ġpherom one
oneph ritis
A OR
b aseline
c AMP
Ġ( "
ul ous
oc ystis
Ġbe have
ay lor
ad herence
ĠH TLV
por a
âĢī 12
ip t
Ġinf lation
Ġinf erences
Ġsc rap
ĠV irus
ĠV DR
Ġmulti plied
Ġj un
ĠCh ang
Ġlocal isation
vent een
Ġsimple x
Ġdisrup ting
Ġrib osomes
Ġmethyl ene
Ġcategor ization
Ġmach ines
ĠGu ang
Ġgland ular
Ġvacu oles
Ġclean ed
According ly
Ġport able
Ġcarboxyl ic
ĠMad ison
Ġantiser a
Ġurg ently
Ġnanofib ers
Ġhydrophob icity
Ġaeg ypti
A U
F ollow
H o
S elf
p ret
Ġan onymous
Ġb idirectional
ent re
Ġst ory
ĠT m
um inescent
st roke
ĠA z
ĠS am
ĠP ower
ĠH ydro
ĠH EV
ĠH NSCC
ĠR y
ĠN N
âĢī SEM
ĠL ung
ĠW ild
ĠO cean
Ġy olk
Ġsp ore
Ġfol ic
Ġloc ate
SA R
Ġ15 4
Ġradi ologists
och lor
Ġeven ing
met ry
Ġmamm ography
isc her
Ġprop ranolol
ĠPl an
immun o
Ġsynap t
Ab out
Ġecon omy
Ġfore brain
ĠPr P
Ġglomer uli
Ġphag ocytic
Ġsynerg istically
Ġdiagram s
local ized
mC herry
Ste p
Ġenerge tic
fri endly
Ġplei otropic
D AP
Z hang
l ot
Ġan tin
Ġd yn
il ding
ĠS AT
ĠI PA
Ġch imer
ĠH am
ĠF ar
Ġper iton
Ġad vent
ys ed
ĠN av
ĠW ritten
Ġwhe e
Ġag rees
Ġend ed
Ġgl ab
yn ch
Ġradi ologic
23 3
Ġ14 9
Ġsal ient
Ġaccum ulating
CM s
Ġlear ners
Ch rom
ĠAc tivation
Ġhemat ologic
Ġaccel erating
ĠPM N
ocarcin omas
ozo ites
Ġcataly ze
assemb led
Ġgonad otropin
ĠOff ice
Ġnanos he
Ġshar ply
F emale
M CI
R ab
g ers
m ixed
Ġan ionic
Ġl engthen
se ed
Ġr hesus
Ġbut yrate
Ġdes m
de hyd
Ġser ially
ann on
Ġneed les
Ġclass ifiers
ĠCh r
Ġgu anine
Ġcarcin ogenic
MR SA
Ġgast rectomy
AA RT
ĠAg NPs
âī Ī
Ġpenet rate
Ġcann ula
Ġexpon entially
Sup porting
Ġba umannii
Ġcephal ospor
Ġappreci ated
Ġmang anese
Ġquies cent
ĠIsra el
0 46
H ispanic
L o
O lympus
S CC
ç Ķ
Ġf ight
Ġg um
ay a
ĠM ale
ĠB MSCs
ĠIn hibition
ia o
Ġsub sp
ĠO L
ĠV III
Ġ19 77
ĠJ urkat
ov is
Ġexc iting
ĠAn n
AS S
ĠY FP
Ġknow ing
ĠPD F
Ġreflec tive
Ġdos ages
Ġlater ally
Ġsoci eties
ĠPT C
Ġmild ly
Ġarth rop
ĠCF TR
Ph ysical
ened i
Ġhard ness
Ġarrow heads
TE RT
Ġhomogen ate
Ġperic ardial
Ġaliqu ot
Ġophthal mic
Ġjejun i
Ġcorrobor ated
Ġmacrom olecules
Ġobstac le
Graph Pad
Ġdrawback s
Ġarres ted
Ġnatri uretic
V er
V isual
w hen
Ġt ack
on di
Ġre aring
um ar
ĠM EP
ĠD Q
ĠB aseline
Ġco ales
Ġdep ict
Ġassess es
Ġprim itive
inc t
Ġradi ology
Ġsensi ti
âĢħ nm
Ġdivid e
ĠSh ig
ĠNF ÎºB
Ġcytos ine
Ġvas opressin
ĠPrim ers
Ġplas mon
Ġbrach ial
electro de
Ġunw anted
Ġdanger ous
ĠClostrid ium
J A
M ain
t oc
ti bility
Ġc enti
ol ymers
Ġst aphyl
ĠA LI
ĠM ain
ĠM agn
ĠH ard
Ġpre vail
ĠR ich
Ġcl opidogrel
ĠO h
ox ication
Ġsp astic
Ġ7 50
ne e
Ġform ally
Ġform ulas
Ġgl ia
Ġimmun ologic
CT A
Ġev ac
AC s
19 3
Ġ14 1
27 6
Ġprac tically
otherap ies
Ġtransi tional
Ġpoly vinyl
ĠPC B
kin je
Ġattr act
Le ft
Ġcontrac eption
Ġeosin ophilic
oglyc ans
Ġoligodend rocytes
tras ound
Ġreimb urse
2 11
b urn
u ates
Ã ¸
in one
in eral
Ġs orption
om ib
ce eding
uc onazole
si ella
ĠP ax
ĠB inding
âĢī T
ĠG AT
ors al
Ġsol ids
ful l
ogn ition
esthe sia
Ġassemb l
Ġspon ge
Ġrot ated
inn ed
Ġmarket ing
Ġdev ast
Ġalkal oids
articular ly
Ġpluripot ency
Ġnanom aterials
Ġphotocatal ytic
oal veolar
Ġconsecu tively
B O
C ancer
g ender
m ond
p ots
Ġw itness
Ġb ark
id ate
Ġv o
Ġch ief
ĠF FP
ap ent
Ġdi ode
ĠG U
Ġ5 50
pon ents
Ġro ds
ob ile
emb ered
rop ol
19 98
Ġcap tures
Ġapproach ing
Ġu rot
Ġshort age
ĠPD MS
TT T
Ġcatal og
Ġcall osum
NT R
Ġglut araldehyde
Ġtail s
Ġneph rectomy
Ġhex agonal
Ġgent le
alg ia
Ġprokary otic
Ill umina
Ġamn iotic
ĠTanz ania
irel ess
M ul
] [
v ector
ra vel
se g
Ġde uter
ĠH en
ĠF orest
In teg
Ġpresent ly
Ġrem ember
Ġaut oradi
DS C
Ġexpl ores
17 1
Ġiniti ates
Ġ14 7
Ġz oon
OR s
Ġarter io
Ġneuro inflammation
Th ird
arb on
Ġeduc ated
Ġhy phae
Ġsil enced
pr ints
Ġangi ographic
Com plete
Ġqual ities
pop ulation
Sm ad
ĠDet ails
Ġamelior ate
prim ary
Ġchemot actic
Ġlogarith mic
Ġnocic eptive
0 36
t g
Ġt ann
er us
al tered
ic itis
et e
ur ious
Ġcon es
ĠA NG
si e
ĠI d
ĠP rom
ĠM MR
ĠF MD
Ġper tinent
Ġag gl
Ġmicro circ
Ġins piratory
reg ion
Ġvis ibility
ĠSt ata
ĠTh irty
Ġ15 6
âĢĬ 2
Ġtemper ate
Ġequ ine
ey ond
Ġact u
aro tene
aph thal
oll a
Ġfed eral
ĠSur vival
ĠRh od
Ġeti ologies
Ġsor afenib
Ġtriple t
Ġphenyl alanine
inhibit ory
ster oidal
Ġfum ig
etu ximab
* ,
0 33
C i
n uclear
o ylation
y ne
Ġc occ
at ten
Ġf urn
ic ate
ĠT at
Ġas ynchron
ra des
ĠI DH
se gment
ĠN ow
tiv ated
ap ore
Ġmet er
Ġun available
ĠV PA
Ġcomple mentation
Ġcal oric
oph y
18 6
ĠSt ar
Ġact ors
eed back
ĠUV B
ĠSO CS
Ġglycos ylated
rele asing
Ġanne xin
Ġsomat ostatin
Ġcontribut ors
random ized
Ele ven
Ġparo x
Ġkary otype
Ġnos ocomial
oprol if
Ġrostr al
T CR
ti p
Ġc ens
Ġf ishes
Ġth alamic
ĠT DP
um es
st ation
Ġr umen
ph i
est radiol
ĠE ph
Ġcan opy
ary ing
ĠG Î±
Ġph aryngeal
Ġpos ter
per iod
Ġman ager
ĠV H
Ġdid n
ins ically
Ġradi on
24 3
Ġsymptom atology
BS S
ĠPro bes
orph ine
ĠAt las
âĢ¯ mg
CO X
Ġinterpret ations
quin one
ĠDis orders
Ġrup tured
Ġvar ic
Ġmism atches
Ġprednis one
Ġnig ra
ĠPrac tice
overex pressing
) âĢĶ
B a
f lex
m orbid
s or
z z
he red
ti er
ur acy
un published
Ġex tern
ĠC FA
Ġ2 70
ĠS till
ĠP IN
ĠH SA
ĠG AS
Ġsc ript
ven tions
our ces
ob ium
Ġmicro be
ucle ated
Ġapp s
Ġ14 8
Âµ l
ĠST EMI
Ġcomm and
CV D
Ġtransform ants
Ġrib onucle
athe cal
Ġcer amide
FI SH
Ġlapa roscopy
Ġretro viral
paramet er
Ġpercenti les
Ġds DNA
Ġlex ical
Ġphil os
ythe rapy
ygo tic
3 01
B ase
D r
E PS
G SH
S ym
Z r
c re
k m
p arent
Ġt rough
is tein
Ġre traction
ere b
ow ed
ĠP EP
Ġcomp ressed
ess or
ĠD VT
ĠN ep
Âł âĪĴ
Ġint oxication
Ġit eration
Ġab and
Ġtrans activation
enc ia
ath rin
Ġaut onomous
18 9
Ġvis u
Ġprob iotics
EM G
MR s
ik a
terol ateral
Ġbr ush
Ġden atured
Ġorigin ates
ĠME F
ĠOS CC
Ġuns aturated
Ġsymmet rical
Ġulcer ation
Ġneuropsych iatric
Ġmedull ary
Ġunpred ict
I r
c aus
at ases
Ġd oll
Ġl akes
Ġg am
Ġst orm
Ġex ported
ĠA st
ĠS EP
Ġr amp
ĠM RS
ĠH RT
ĠF ace
ĠR ib
ĠN OX
âĢī 15
yl on
end a
Ġdec arboxyl
ĠV ib
Ġnon parametric
Ġins ult
Ġimp uted
vers us
ĠIL C
ole ic
ĠCT A
âĢīm mol
activ ator
ĠEn v
Ch i
Ġphysi otherapy
Ġear s
AB L
ĠMA F
organ ized
Ġaud io
Ġelement ary
Ġsent inel
Ġconce iv
fil m
Ġspot ted
Ġdiscl osure
orp oreal
Ġconflu ent
ĠProt ection
Ġbott len
odom ain
Ġowners hip
Ġinterconn ected
Ġsa fer
stre ptomycin
Ġcholecyst ectomy
Ġengraft ment
Ġperiton itis
dehyd es
E urop
K R
U r
i ens
p ublic
en na
Ġw ww
Ġm old
ĠT MA
am an
ĠC p
ell ites
ĠM AG
pl acement
ĠF ried
ĠE PI
ĠG le
Ġcl ub
Ġap ple
Ġk anamycin
ĠO per
ĠO ral
Ġun healthy
de ed
ĠV C
iv a
ĠâĢ Ķ
Ġcare rs
asc ent
eth nicity
Ġext ant
Ġ14 2
Ġhyper cholesterole
Ġcarri age
Ġintra hepatic
orb ol
ĠCT X
Ġdetect ors
ibr ill
Ġconfirm atory
ĠAP OE
alk yl
Ġslow ing
Ġextract ing
Ġcontain er
Ġdiscrim inating
luores cein
ĠPM MA
Ġserious ly
Ġprefer able
ĠMMP s
na Ã¯ve
lip tin
ĠFran cis
ĠDet ailed
Ġstrengthen ed
Ġcondens ed
orr hea
Ġuve itis
Ġpractic ing
Ġkinet och
0 48
K i
N or
N ET
R u
S ol
S iO
U E
a ur
f itting
g ap
o a
in ae
Ġs aved
Ġm ush
Ġre lying
ĠC CC
ĠS ar
ĠI dentification
Ġcomp atibility
ran ch
ĠF FA
ĠL MP
ple tely
str y
ĠU CP
Ġend osomal
Ġexc reted
âĢĬ 4
Ġtub erc
Ġcolon ized
ĠIm p
Ġsmok er
Ġinst alled
Ġpen ile
Ġelucid ating
Ġty ros
ĠDep ending
oli osis
Ġglomer ul
Ġcardiomy ocyte
mes enchymal
Ġmolar s
Ġpredis posing
ĠPur kinje
ĠDisc ussion
Ġcit ric
Ġnas opharyngeal
Ġerythem a
Ġinsectic ides
Ġantipsych otics
Ġhamp ered
) [
+ /âĪĴ
H IF
V C
V ol
d aily
w as
z hou
Î ¶
re ducing
al coholic
Ġf asted
Ġd d
Ġb ene
ul ence
ac ces
Ġh on
et ry
Ġis otropic
ĠC aspase
ĠA SO
ĠI H
Ġcl oth
Ġk a
Ġcontrol ler
Ġbi ochemistry
Â° )
rop ine
Ġcorrel ating
20 9
Ġcyt ological
Ġel ite
Ġ15 1
Ġfactor ial
000 2
Ġmetabol omics
to ethanol
30 8
other s
Ġmusc arinic
Ġintr as
34 5
Ġnovel ty
ĠCom plete
ĠInc reasing
Ġfore nsic
ĠES BL
mut ant
Ġreferr als
col umn
Ġfarm ing
Ġsuperv is
ĠHu h
Ġincid ental
leb siella
Ġsati va
Ġpsychiat ry
Ġlogarith m
Ġrifamp icin
ĠDick inson
Ġleishman iasis
C e
P sych
f eld
it ably
ro blast
os ulf
im od
uc cin
um ulation
ĠC ha
Ġbe e
op ent
ĠM MSE
ĠD un
ĠD OC
eren ced
ĠL ater
pro duced
ĠK T
CT C
Ġins pired
05 9
ĠCD I
Ġtri angle
ument ed
Ad ult
Ġmes ot
Ã© n
Ġste adily
Ġcounter stained
Ġleaf let
ows ki
Ġparent heses
Ġpenet rating
Ã¡ n
Ġdestruc tive
Ġrepeti tions
Ġencompass es
Ġamelior ated
Ġperfect ly
Ġtac rolimus
ĠCriter ia
Ġisch aemia
Ġautocor relation
Ġnormot ensive
M echan
U M
X RD
c igare
t man
re ach
Ġs igmoid
or us
is ser
Ġre ared
om avirus
Ġn ort
ol ymph
un ion
um ption
oc ic
ab a
em ens
ĠP rol
ĠM ES
Ġle isure
ys titis
ĠR OR
ose lec
Ġdec e
hen ol
Ġpred ation
ha em
Ġexpl os
Ġmark ets
anti le
Ġver tex
Ġpers ists
Ġeff luent
amin ophen
des igned
ST M
amp hetamine
ysi ologic
ĠPro cess
ĠÂµ mol
ĠSD F
ĠCol lab
Ġleuk aemia
Ġsusp icious
Ġlist ening
ĠCons ortium
ifer ous
Ġduplic ations
Ġantimicrobial s
Ġpartners hip
Ġmaxim a
dial ysis
Ġcontig uous
Ġscaven ger
Ġdens ely
omegal ovirus
Ġthromboemb olism
Ġadjunc t
Ġciv il
0 38
M ark
P y
Ġp icked
Ġin ositol
it ate
it ations
ro in
Ġm um
Ġd ed
et o
Ġex agg
ĠP ER
ĠP SP
Ġde af
Ġch apter
âĢī 11
ĠL AMP
ĠO ste
Ġaut ocrine
19 4
17 8
ĠQ RS
Ġhem angi
Ġfac et
Ġdown ward
Ġpass es
Ġasth matic
ronch ial
Ġventi lated
can onical
Ġneighbour ing
Ġscin tigraphy
Ġdichotom ous
Ġsing ular
0 34
0 47
L u
U b
Ġan ode
Ġre taining
Ġe g
Ġth reonine
Ġst ance
ĠT aking
am ides
ab ular
ĠP u
th aw
ĠM PS
ĠH OX
Ġle ver
ĠG LI
ĠL SM
Ġab normally
ĠW ales
Ġun met
ĠU TI
Ġmore over
Ġout lier
Ġover dose
Ġend onuclease
Ġtri phosphate
Ġestim ator
Ġ15 7
con cept
ĠCh lor
Ġhem odynamics
Ġfac ts
AG G
Ġinfec ting
CG G
ĠPA N
Ġepid emics
Ġglyc ans
Ġprost heses
ĠAr gent
Ġevent ual
Ġpharmac ology
Ġent rance
Ġsulf oxide
Ġer adic
Ġcounter act
ĠSup port
Ġmanip ulate
Ġstom atal
ĠEG CG
Ġingredi ent
Ġparo tid
Ġhyperm ethylation
Ġsonic ated
e tit
o val
r n
an ase
le ading
res siveness
am ber
ĠC Cl
ĠP CP
th reonine
ĠM ountain
ĠH eter
ĠF lor
Ġrec onstruct
Ġph r
ose lective
Ġout lines
Ġcap ita
Ġret inoic
Ġfl ora
Ġindex ed
Ġdim eric
Ġdistinct ly
99 9
Ġtrig eminal
Ġcaps aicin
Ġspermat ogenesis
ĠDL BCL
inform atic
Ġcampaign s
Ġfaecal is
Ġkinem atic
Ġrestrain t
agglut inin
B en
g rowing
Ġs el
Ġc uc
Ġl ying
ly sis
Ġst en
um ulative
ĠS ET
ĠS afety
ĠP p
ĠP or
ĠM TS
ĠR NF
ĠN uclear
ĠE b
ĠE lectro
vi v
Ġsy ph
Ġinter disciplinary
ear chers
Ġun folded
ual itative
ĠU PR
Ġbl o
Ġsup r
Ġcar n
ĠV itamin
med ical
Ġaut oreg
17 9
me ans
Ġlo ose
des cribed
An g
AR C
Ġtop ois
Ġconver ts
âĢħ Ãħ
Ġtoler ate
ÎĶ ÎĶ
Ġdepos it
Ġmil ieu
Ġartif icially
Ġmotiv ational
educ tion
Ġsimpl er
Ġgal ectin
ometh acin
Ġdich ro
Ġcong ru
Ġphotore ceptors
ju ana
Ġinvent ory
ondi aldehyde
Ġdevast ating
B ruker
C am
L B
U U
re porting
at tract
Ġm ission
Ġd uty
ĠT er
oc yc
ay es
Ġch ances
Ġdis integ
Ġsh rim
ĠF ield
ĠD AT
ĠB AF
ĠE lectron
ib li
ĠG Cs
Ġdet ects
ass emia
oun ting
oph arm
Ġaut umn
Ġcomb ustion
spec ified
19 7
Ġpe an
AP S
of luorescent
Ġred istribution
Ġlip ophilic
Ġpsych o
Ġher d
Ġmes op
Se quence
phosph o
Ġliqu ids
Ġoverl aps
Ġsem in
ĠMP O
ĠPV DF
Ġconcomit antly
Ġdepri ved
Ġhemisp heres
Sur vival
pur ified
Ġsplen ocytes
Cardi ac
Ġperiv ascular
+ ).
d eterm
e or
l otinib
Ã ª
è Ĥ
Ġc uring
Ġp ragmatic
Ġf uc
ic c
st atis
st aining
ĠP AL
th iaz
ĠM ol
Ġch ips
Ġcomp etit
te z
ĠE uro
ĠG overnment
tim ately
Ġun modified
In deed
oid in
Ġless ons
25 8
Ġorgan elle
ick etts
Ġ16 3
ĠX Y
Al tern
Ġi PSC
MI M
ĠAd ult
ĠAm azon
orb ed
utri ents
ĠPA M
Ġendot helin
Ġfacilit ators
Ġ26 4
Ġventric les
ĠRA NKL
articip ant
Pre valence
Ġrank s
Ġfluor ophore
Ġspe akers
ĠNH E
Ġgranul ocytes
Ġanticip ate
Ġmer ist
Ġchor oid
Ġproceed s
ĠMAT LAB
Ġimmig rants
ymp athetic
ĠTyph imurium
embran es
E I
a ft
f MRI
m mol
r ates
Ġd ies
Ġb ariatric
Ġn ascent
Ġst yles
ĠT an
ĠT PA
ĠP ack
ĠP rop
ine ment
Ġgen ders
are r
Ġ4 80
Ġanti proliferative
ĠU DP
Ġar ith
Ġinvestig ates
inc ial
AC G
19 8
Ġsu ite
Ġsuc ceed
Ġgeneral ization
Ġphot ographed
Ġhand led
Ġadhe red
ĠPA F
ool ed
Ġaden ocarcinomas
Ġcheck ing
Ġhemat ocrit
Ġdisch arges
.. .
Ġcaps ular
Ġattr action
Ġple ase
ĠSH EL
Ġsple ens
pan ze
Ġpropag ated
benz yl
Ġveter ans
agent a
Log istic
Ġgamb ling
Ġaux iliary
Ġnanow ires
ropol itan
M EM
O VA
S il
j ury
s upplementary
t re
Ġo t
Ġm ant
Ġb ats
le e
id us
Ġg ated
ad d
ĠR ot
ĠR EV
ĠW D
Ġno isy
Ġqu eries
Ġconc ordant
ne u
Ġ19 76
Ġdesc ent
DS Cs
SI L
Ġexpos ing
struc tures
Ġintr al
Ġcarb oxy
ĠCT LA
Ġconver ge
ĠÏ ķ
Ġent ers
ĠPT B
Ġide ation
ĠâĪ Ī
Ġasym pt
Ġseem ingly
Ġinfiltr ated
Ġmicros omal
sk i
ocon version
partic ip
Hist ological
Ġmus ical
igu ingly
ĠMex ican
ĠHel ic
ĠCamp ylobacter
ĠFac ulty
pregn ant
Ġcoexist ence
osom iasis
odextr in
H SP
L ike
M ann
M art
N an
Y et
Z e
d isease
g rown
l apping
t ance
t ask
Î ¦
Ġf iller
Ġe jac
ig in
ĠT um
ĠT ak
ĠT au
up lic
ĠM CS
ad os
ĠF ir
Ġgen u
ĠR UNX
ĠL es
Ġinter sp
ep tic
Ġsc arc
Ġun ravel
one g
ide ment
Ġdes ensitization
Ġconc aten
Ġform ats
ĠV IP
emb l
Ġmicro b
ĠJ iang
Ġchem op
Ġphosph odies
oper oxidase
aren tal
Ġsal ic
ĠAD R
Ġtransi ents
ĠRes id
Ġthick er
Ġresear ches
Ġwave forms
Ph ylogenetic
rogen esis
Ġreturn s
Ġcla udin
Ġlam ell
Ġpopular ity
3 20
4 60
E d
M H
f atal
m og
Ġp ectin
it ers
un its
Ġal ph
ĠS urgical
Ġch air
ĠH h
ĠH and
ĠF a
duc tase
ĠD on
est in
Ġco x
Âł and
Ġcan cell
Ġdi urnal
ĠG er
ĠG PI
Ġpar sim
Ġind omethacin
In vestig
Ġsim ulating
Ġidentif ier
Ġpol yd
ĠJ oint
Ġestim ations
Ġrele ases
erc ules
xim ide
Ġhydro carbon
Ġclos ing
Ġcult urally
occ urrence
Ġtend ons
osp asm
Ġfav oring
ĠNF AT
ipl atin
Gen omic
HF R
Ġpup il
Ġfertil izer
ĠECM O
Ġmast ectomy
tem is
Ġwarran ts
Ġassimil ation
ĠCoul ter
0 49
F os
J o
M AC
N umerous
f used
h us
r A
Ġa rab
as in
ul ary
Ġst ains
ĠT W
op oside
ĠM end
ĠM SA
Ġnot hing
ĠG li
Ġcl ick
ĠW ashington
Ġspec ially
tal k
CA SE
ĠCD H
amin ated
Ġintr insically
ĠEx amples
Ġelectro encephal
Ġmid brain
ĠCol omb
Ġmelan omas
Ġheight ened
Ph ys
ĠPer iod
fam iliar
Ġneurode velopmental
Ġket one
Ġhapp ened
Ġpunc ta
ĠTRI zol
Ġwr ite
Ġincid ents
Ġgingival is
Ġsial ic
Ġascorb ate
ĠEMB ASE
Ġrectang ular
) +
V L
w all
Ġin activity
Ġf uzzy
ĠA NA
Ġgen otoxic
Ġab brevi
pro fessional
ari ans
Ġrisk y
Ġcancer ous
iter p
Ġextr usion
Ġcentr ally
ĠRe porting
âĢ¯ h
Ġchlor ine
HA NES
Ġadequ acy
Ġpy rophosph
Ġwave gu
ĠReg ional
Ġelucid ation
ĠNe ither
ĠImmun o
Ġburn s
Ġdich lor
Ġanten n
ĠMY B
regn ancy
irradi ation
Ġappoint ments
Ġincon clusive
quad rup
stad t
b acter
Ġo edema
Ġp ector
as et
Ġn ar
Ġl yc
Ġst alk
ĠA CA
tic ular
ĠF AD
ĠB one
Ġpar ap
Ġrespon ds
Ġdec on
Ġpr ison
Ġnucle osomes
Ġphys ics
Ġmy o
Ġmy omet
ae a
Ġte en
Ġlay ered
sh ire
Ġmagn itudes
Ġrestric ting
ĠWith out
Ġbond ed
Ġminim ization
iver sities
Ġfo etal
Ġdev ised
Ġdoub led
ĠÂ £
Ġserop ositive
Ġtriang ular
Ġvibr ational
ĠOnt ology
ĠSNA P
Ġarchae al
Ġstoichi ometry
Character istics
Ġinfest ation
C hip
I dentification
I STR
L et
s urgery
x x
Â ´
Ġin ert
or ov
ro at
Ġd rag
ĠC Q
oc o
ĠA CR
ĠI NS
em an
ĠM EL
ĠB CS
act am
yl ed
pon taneous
ox one
ĠK H
vious ly
tis ing
ove ment
ĠQ ALY
40 2
Ġread out
Ġpoly styrene
Ġher ds
Ġge ographically
Ġpig ments
Ġmeta phase
ĠPl ate
Ġsmooth ing
ĠMod ified
Ġpip er
ĠMicro soft
Ġthreat s
ulsion s
Ġnom enclature
nR NP
Li u
phot ericin
Ġappend icitis
Ġelectrom y
Ġmann ose
Ġaw ake
b et
Ġp ush
an um
Ġre wards
ĠT LC
ĠT raining
ot ecan
ra x
ore n
Ġhe ights
Ġcl av
ĠL TR
ak ary
Ġout standing
ord inate
Ġocc urrences
ĠSt ress
30 3
Ġpur ine
ĠQ D
ĠHe at
Ġcarb oplatin
gl ial
Ġpotenti ated
Ġpoly g
sh own
Un fortunately
Ac tivation
ĠPer formance
Ġdrop out
org hum
Ġuter o
Ġthreat ening
ĠRO M
Ġstent ing
Ġbud s
ometh ane
Fif teen
Ġwash out
bio tics
ĠCompar ing
Ġincen tive
Ġnanocompos ites
ĠFus arium
Ġga uge
Ġchloro quine
D iff
G APDH
H y
H odgkin
K im
L ung
O ral
e valu
è ĥ
en yl
Ġp aste
at urity
or ations
Ġm ag
Ġb inge
ab d
si ves
ĠP PD
se par
Ġor ch
Ġde phosphorylation
Ġcomp elling
ĠN ag
ist ration
Âł %),
Ġpar v
Ġpar alle
pro ced
Ġsub species
Ġun labeled
Ġtr action
ateg ories
ĠAs terisk
Ġhem olysis
vent h
ĠPD GFR
Ġul nar
IN ICAL
Ġtransfer ring
Ġagg rav
Ġ* ,
Ġinterp olation
occ up
com part
Ġbur dens
au tious
Ġbio activity
PT H
Ġmelan in
Ġcompl ained
Âłmin utes
Ġple th
Mean while
Ġretro trans
Ġarg on
Ġproceed ed
Ġsubm ucosal
Ġlute in
Ġunsup ervised
0 45
B arr
E st
b il
i rable
Ġ %,
Ġw edge
Ġth umb
ol ones
ot ax
ĠA J
th is
ĠF ST
ĠF emale
Ġpre existing
ĠB NP
ĠK lebsiella
ry ing
Ġ19 2
Ġmulti plicity
roscop ically
Ġadj uv
AD s
Ġapproxim ated
AR E
ĠCa MKII
olar ization
Ġalg al
com plete
ĠAr ray
Ġgran d
NI H
Ġrev olution
ĠUnder standing
Ġwebs ites
Ġfasc ia
Ġextrap olated
ĠPop ulation
mix ture
main ly
Meth od
Ġfun nel
Ġreimburse ment
A SA
D em
F actors
P ark
b enef
h s
k l
å ħ
Ġ zym
Ġp ET
Ġw ireless
at eness
as ters
el iness
os iti
if ers
Ġex ceptional
ant el
di hydro
di hydroxy
ĠD er
ĠD TI
Ġass urance
Ġint ensi
Ġcl athrin
Ġdec oding
ect ants
ĠK al
Ġpo uch
cri tical
20 7
âĢĿ ),
Ġfl ip
Ġdeg ran
Ġâ Ĥ
Ġpepti d
Ġinterest ingly
An imals
ret reatment
Ġutil isation
Ġsw ollen
47 3
Ġrecru its
Ġnor adrenaline
Ġfin ished
ĠNH L
ĠES CC
Ġemphas izing
Ġxen ob
Ġrheum atic
ĠUl tra
Ġdeline ated
Ġsick ness
Ġvasodil ation
Ġrelap ses
Ġjustif y
Ġamen able
Ġsyph ilis
ISTR ATION
0 39
2 16
A x
E ff
d ys
d ashed
h ome
Ġs ie
Ġin efficient
us ters
Ġn ests
ĠT ypically
ĠS SI
ĠP c
ĠP VA
ĠR Neasy
ĠN am
ap ical
Ġdi ary
Ġcl ues
Ġsub gen
Ġstr icture
ĠÎ ¦
ĠK r
Ġmetabol ically
amin obenz
Ġenvironment ally
Ġdys functions
CF U
Ġknock ed
Ġthickness es
rehen sive
aph th
Ġca esarean
Ġbreak through
ruc tured
Ġauthor ity
ĠEm b
Ġfif ty
Ġlic hen
ĠÂ ©
Ġcyclo oxygenase
Ġevapor ated
Ġneurotransmit ters
Ġsemicon ductor
Ġvasoconstr iction
Ġjug ular
âĮ ª
Ġanore xia
ĠGle ason
D ATA
F ib
h og
n ew
Ġt DCS
Ġo roph
Ġd urable
as partate
Ġb ubbles
Ġh unting
et obacter
ĠT ET
ĠT TP
ĠT RAF
Ġbe ars
ĠP CD
ĠF ew
Ġinv ading
ĠU SD
Ġnum b
Ġcal modulin
Ġset t
Ġcr im
âĢĬ 5
RP E
sh if
ges ia
lus al
Ex t
Ġcertain ty
Â· Â·
Ġjoint ly
acet ylation
Ġcompet ency
Ġvolt amm
omat osis
Ġsinus oidal
CK D
vit real
Ġemp ower
Ġsib ling
Schem atic
ĠRem arkably
Ġconjunctiv al
ĠRus sia
uclide an
Ġinacc urate
Ġrepos itory
embry onic
arach noid
Ġcasp ases
D Q
R EC
f oli
h ours
m ers
p ack
Â ²
Ġb ovis
Ġn ad
Ġex ome
ĠA IS
ĠP FA
pl en
pl oys
ĠR ank
ĠR OP
âĢī 30
Âł nM
Ġdi ethyl
ĠG m
ĠL LC
ear ning
port ant
Ġcor on
Ġun int
ever ity
ĠK C
ĠJ un
ov ing
hel ical
Ġorgan isations
22 6
22 9
Ġequ ity
Ġhem ic
Ġsuc tion
Ġ- -
Ġwild life
Ġcat abolic
ef itinib
Ġprevent able
Ġair flow
otyp ically
com b
Ġent hal
Ġrecommend s
Ġphyl a
ĠPI K
Ġcircum vent
Ġnic hes
Ġdistr action
Ġfibr il
Ġdimin ish
Ġgranul osa
ĠDS Bs
Sm ith
Ġflag ell
ĠTRI M
bach ia
Ġsurfact ants
Or gan
Ġdin ucleotide
Ġdecarboxyl ase
N inety
b ands
m Tc
he aling
Ġc Tn
Ġh ips
Ġex ocytosis
si bilities
op odia
Ġor che
ĠThe rapy
ĠM AS
ĠM RP
ĠH ind
ĠB oston
âĢī (
ĠL oss
Ġrec onc
ĠO verexpression
ĠU r
ĠV ero
Ġdist orted
Ġend ors
25 4
ĠAl together
RI P
22 8
Ġrandom isation
ĠRe le
AG A
âĢħ years
dim er
Ġbal ancing
ept or
ĠPer centage
Pre operative
sm oking
ĠNK T
cler osis
Ġprogress es
Ġmicros omes
Ġjo ining
Ġphyt ochemical
Ġhapp y
Ġchim panze
Ġdyst roph
Ġunderestim ate
iph atic
ĠKn owledge
Ġtrem end
âĤ Ĥ
lactam ase
thick ness
Individual s
[...]
